#include "network_data.h"

ai_handle ai_network_data_weights_get(void)
{

  AI_ALIGNED(4)
  static const ai_u8 s_network_weights[ 20652 ] = {
    0x4a, 0x12, 0x63, 0x3d, 0x40, 0xfb, 0x1b, 0x3d, 0x26, 0x3e,
    0x06, 0x3e, 0x30, 0xff, 0xc9, 0x3d, 0x36, 0xf2, 0x69, 0x3d,
    0x9c, 0x46, 0x04, 0x3e, 0x99, 0xe9, 0xf7, 0x3d, 0x0b, 0x55,
    0x99, 0x3c, 0xfa, 0x77, 0x02, 0x3e, 0x17, 0xa0, 0x19, 0x3e,
    0xae, 0x00, 0x13, 0x3e, 0xdd, 0xcb, 0x14, 0x3e, 0x44, 0x66,
    0x41, 0x3e, 0x26, 0xbe, 0x38, 0x3e, 0x52, 0x06, 0x66, 0x3e,
    0x75, 0xd6, 0x07, 0x3e, 0xc9, 0x87, 0x33, 0x3e, 0xd4, 0x47,
    0x1a, 0x3e, 0xf7, 0x84, 0x19, 0x3e, 0xd9, 0x24, 0x0d, 0x3e,
    0x7f, 0x88, 0x4f, 0x3e, 0x4e, 0x23, 0x0f, 0x3e, 0xb8, 0xb9,
    0x18, 0x3e, 0x95, 0xe2, 0x20, 0x3e, 0xfa, 0x44, 0x3f, 0x3d,
    0x56, 0x7e, 0x79, 0x3d, 0x8c, 0xf8, 0x30, 0xbc, 0xfe, 0x93,
    0x46, 0xbc, 0x10, 0x1f, 0x95, 0xbc, 0x18, 0xb4, 0xe0, 0xbc,
    0x9e, 0xf9, 0x88, 0xbd, 0x87, 0x65, 0x55, 0xbd, 0x4e, 0x9f,
    0xc8, 0xbc, 0x06, 0xd5, 0x8b, 0xbd, 0x52, 0x88, 0x88, 0xbd,
    0xaf, 0x70, 0x62, 0xbd, 0x5c, 0x0f, 0x47, 0xbd, 0x65, 0x19,
    0xe1, 0xbc, 0xf9, 0x59, 0x36, 0xbd, 0xf5, 0x1f, 0x35, 0x3c,
    0xfa, 0x2e, 0x18, 0x3d, 0x93, 0xb6, 0x95, 0xbc, 0xec, 0x4a,
    0x11, 0x3d, 0x8a, 0xbe, 0xcb, 0xbd, 0x10, 0x80, 0xf7, 0xbc,
    0x9e, 0x9e, 0x88, 0xbc, 0xf5, 0xa8, 0x7f, 0xbc, 0x8c, 0x93,
    0xd9, 0xbd, 0x5a, 0x50, 0x17, 0xbd, 0xa1, 0xba, 0x36, 0x3d,
    0xb9, 0x1e, 0xaf, 0x3d, 0xf5, 0xbb, 0x7c, 0x3d, 0x69, 0x40,
    0xac, 0x3d, 0x4b, 0x8e, 0xfa, 0x3d, 0x7b, 0x0a, 0x15, 0x3e,
    0x12, 0x95, 0x36, 0x3e, 0x69, 0x2e, 0x61, 0x3e, 0x8c, 0x33,
    0x44, 0x3e, 0x0e, 0xa8, 0x02, 0x3e, 0x3f, 0xbd, 0x43, 0x3e,
    0x53, 0xf5, 0x33, 0x3e, 0x6c, 0xa6, 0x3a, 0x3e, 0x20, 0xbf,
    0x39, 0x3e, 0x20, 0x4a, 0x9e, 0x3c, 0x17, 0xa5, 0xd6, 0xbd,
    0xe2, 0x2e, 0x12, 0xbd, 0xb9, 0xd8, 0x3f, 0x3d, 0x1b, 0xff,
    0x3b, 0x3d, 0x29, 0xc5, 0x84, 0xbc, 0xe1, 0xfb, 0xf8, 0x3d,
    0xc5, 0xdd, 0x02, 0x3e, 0xa1, 0x88, 0x32, 0x3e, 0x69, 0xe0,
    0xab, 0x3d, 0x76, 0xb6, 0xe8, 0x3d, 0x2d, 0xf9, 0xc9, 0x3d,
    0x12, 0xd7, 0x99, 0x3d, 0xa1, 0x89, 0xd2, 0x3d, 0x1c, 0x3b,
    0xaa, 0x3d, 0xe5, 0xbc, 0xfd, 0xbc, 0x8c, 0x09, 0xb2, 0x3d,
    0x74, 0xc4, 0x55, 0x3d, 0x77, 0x26, 0xb2, 0x3d, 0x2d, 0xd5,
    0xad, 0x3d, 0x18, 0xc8, 0x91, 0x3d, 0x80, 0x9a, 0x38, 0x3d,
    0x33, 0x27, 0xa5, 0x3c, 0x16, 0xfd, 0x28, 0xbd, 0x3c, 0x7a,
    0x10, 0xbd, 0x52, 0xf2, 0x06, 0x3d, 0x66, 0x2b, 0x1b, 0x3c,
    0x34, 0x40, 0xcc, 0xbc, 0x61, 0x33, 0x2d, 0x3d, 0xe9, 0x2c,
    0xbd, 0x3d, 0xb8, 0x1a, 0xab, 0x3c, 0x3d, 0xbe, 0x73, 0x3b,
    0xda, 0x44, 0xa2, 0x3d, 0xf3, 0x65, 0xdb, 0x3d, 0x17, 0xe1,
    0x56, 0x3d, 0x1e, 0xa6, 0x24, 0x3c, 0x62, 0x47, 0xbd, 0x3d,
    0x84, 0x37, 0xad, 0x3d, 0x3e, 0x08, 0x59, 0x3d, 0x75, 0x65,
    0x84, 0x3d, 0x76, 0x80, 0xf3, 0x3a, 0xae, 0xbd, 0xf5, 0xbc,
    0x6e, 0x0b, 0x71, 0x3d, 0xd7, 0x71, 0xa3, 0x3d, 0x30, 0xda,
    0xa4, 0x3d, 0xa0, 0x9a, 0x6a, 0x3d, 0x4f, 0xa8, 0xa0, 0x3d,
    0x28, 0xc6, 0x75, 0xbc, 0x13, 0xde, 0x17, 0x3d, 0x34, 0xaa,
    0x5d, 0xbd, 0xe2, 0xfe, 0x4c, 0x3c, 0xee, 0x9e, 0xb5, 0xbc,
    0x05, 0x97, 0xb4, 0x3c, 0xba, 0x7a, 0xb8, 0xbb, 0xcb, 0x99,
    0xe0, 0xbc, 0x08, 0xc7, 0x4a, 0xbd, 0x0a, 0x19, 0xb5, 0xbc,
    0x72, 0xd7, 0xe6, 0xbc, 0x70, 0xfc, 0x96, 0x3d, 0x0d, 0xb1,
    0xb1, 0x3d, 0x33, 0x1e, 0x69, 0xb9, 0xbb, 0x2c, 0x51, 0xbc,
    0x17, 0x7e, 0x1a, 0xbc, 0xdd, 0x1a, 0x3b, 0x3b, 0xae, 0x5a,
    0x29, 0xbc, 0x79, 0xa6, 0xc3, 0x3c, 0x2d, 0x0f, 0x49, 0x3d,
    0xcf, 0xbe, 0x05, 0x3e, 0x12, 0x8e, 0x04, 0x3e, 0xd1, 0x1d,
    0xdd, 0x3d, 0x61, 0x7f, 0x05, 0x3d, 0x09, 0x19, 0x5a, 0x3c,
    0x59, 0x8d, 0x22, 0xbc, 0x18, 0xd5, 0xba, 0xbb, 0xf3, 0xc8,
    0x96, 0xba, 0xae, 0xb8, 0x0b, 0x3d, 0x0b, 0xae, 0x13, 0x3d,
    0xa7, 0xec, 0x70, 0x3d, 0x88, 0xfd, 0xbf, 0x3d, 0xf6, 0x87,
    0xf7, 0x3a, 0xb2, 0xb7, 0x34, 0x3c, 0x38, 0xe8, 0x53, 0x3d,
    0x5f, 0x8f, 0x67, 0x3c, 0xc1, 0x79, 0x43, 0xbc, 0xba, 0x2a,
    0xc8, 0x3d, 0xdf, 0xf0, 0xba, 0x3d, 0xf5, 0x49, 0x90, 0x3d,
    0x4b, 0x8d, 0xbf, 0xbc, 0xd7, 0xc8, 0x6e, 0x3d, 0x13, 0x20,
    0x7f, 0x3c, 0x2c, 0x06, 0xbc, 0x3c, 0x3f, 0xb9, 0xd3, 0x3c,
    0xfa, 0xad, 0x13, 0xbd, 0xa4, 0xaf, 0x4f, 0x3d, 0xf1, 0x44,
    0x5b, 0x3d, 0xc2, 0xd8, 0xee, 0xbb, 0xb8, 0x55, 0x51, 0xbd,
    0x6e, 0xb9, 0xaa, 0x3c, 0x47, 0x43, 0x86, 0x3d, 0x95, 0xd0,
    0x43, 0x3b, 0xb1, 0xc2, 0xac, 0x3c, 0x8e, 0x62, 0x80, 0xbd,
    0x06, 0x4a, 0xab, 0x3c, 0xac, 0x44, 0x28, 0xbd, 0x9d, 0x82,
    0xf7, 0x3b, 0x91, 0xfb, 0x6e, 0x3d, 0xa6, 0xf7, 0x83, 0x3d,
    0xbc, 0xd2, 0xaa, 0x3d, 0x70, 0xa7, 0x70, 0xbc, 0x88, 0xf6,
    0xdd, 0x3b, 0x87, 0xd5, 0x9c, 0x3d, 0x29, 0x0a, 0x04, 0x3d,
    0xb7, 0x8d, 0x19, 0x3c, 0x3f, 0x88, 0x03, 0xbd, 0x45, 0xd9,
    0x79, 0x3d, 0xdf, 0x45, 0xd3, 0x3d, 0x22, 0x60, 0xee, 0x3d,
    0x93, 0x44, 0x5a, 0x3d, 0xc2, 0x68, 0x58, 0x3d, 0x45, 0x67,
    0x8f, 0x3a, 0x00, 0xe7, 0xcd, 0x3d, 0x58, 0x38, 0x60, 0x3d,
    0x46, 0xd9, 0xb4, 0x3d, 0x20, 0xad, 0x66, 0x3d, 0x8f, 0x22,
    0x9f, 0x3c, 0x44, 0x1c, 0xce, 0x3c, 0x10, 0x6f, 0x35, 0x3c,
    0xf6, 0x15, 0x96, 0xbb, 0x6c, 0x39, 0xb7, 0xbc, 0x80, 0x20,
    0x4c, 0x3c, 0x56, 0xf0, 0x70, 0x3d, 0x3b, 0x9c, 0xae, 0x3d,
    0x44, 0x6c, 0x66, 0x3c, 0x39, 0x4e, 0x16, 0x3d, 0xc9, 0xdb,
    0xa4, 0x3d, 0x7f, 0x79, 0x90, 0xbc, 0x75, 0x41, 0x39, 0xbd,
    0x1b, 0x9c, 0xb6, 0x3d, 0x59, 0x4b, 0x65, 0x3d, 0x49, 0x78,
    0x25, 0x3a, 0x29, 0x20, 0xd5, 0xbb, 0x52, 0x4e, 0x09, 0x3d,
    0x04, 0xf6, 0x1a, 0x3d, 0xb1, 0x8a, 0xab, 0x3d, 0xaf, 0x0f,
    0x3f, 0x3d, 0x2a, 0x57, 0xf6, 0x3c, 0x35, 0x60, 0x37, 0xbd,
    0x95, 0xb4, 0xae, 0xbc, 0x15, 0xb5, 0x4e, 0xbc, 0x85, 0xea,
    0x75, 0x3b, 0xfe, 0x09, 0x02, 0xbb, 0x8a, 0x8b, 0x07, 0x3d,
    0x85, 0x99, 0xcc, 0x3c, 0xda, 0x15, 0x0a, 0xbd, 0xe2, 0x19,
    0xe3, 0xbc, 0xa1, 0xe0, 0x46, 0xbd, 0x81, 0x12, 0x7a, 0x3d,
    0x81, 0xcb, 0x5f, 0x3d, 0xb8, 0x25, 0xf0, 0xbc, 0xba, 0x63,
    0x1f, 0xbd, 0xaf, 0x14, 0x02, 0xbd, 0xec, 0xaf, 0xa3, 0x3d,
    0xcb, 0x0c, 0x10, 0x3d, 0x49, 0x20, 0xc2, 0x3b, 0xd8, 0x58,
    0xa1, 0xbc, 0x9b, 0x5d, 0x04, 0x3d, 0x61, 0xd3, 0xdd, 0x3b,
    0xec, 0xa3, 0xa3, 0xbd, 0xef, 0x66, 0xba, 0x3c, 0xc7, 0x29,
    0x0e, 0xbd, 0x90, 0x28, 0xe7, 0xbd, 0x9a, 0x64, 0x39, 0xbd,
    0x05, 0x81, 0x0d, 0xbd, 0x7f, 0xb2, 0x52, 0x3d, 0xdd, 0x89,
    0x6e, 0x3d, 0x01, 0x1a, 0x2e, 0xbc, 0xfd, 0xba, 0x4e, 0xbd,
    0x65, 0x39, 0x05, 0xbd, 0xe9, 0x2d, 0x0f, 0xbe, 0xb8, 0xff,
    0xe8, 0xbd, 0xed, 0x4c, 0x07, 0xbe, 0x7f, 0xee, 0xc8, 0xbd,
    0x7b, 0xc6, 0xf2, 0xbb, 0x7b, 0xed, 0x02, 0x3d, 0x98, 0x75,
    0x59, 0xbd, 0x33, 0xa4, 0x3c, 0xbd, 0x7d, 0xe1, 0xc3, 0x3b,
    0x5b, 0x66, 0x1d, 0xbb, 0xe4, 0x45, 0x75, 0xbd, 0x15, 0xff,
    0x5c, 0xbd, 0xf5, 0xb5, 0xc2, 0xbd, 0x6d, 0xbf, 0xc8, 0x3b,
    0x2c, 0x82, 0xb2, 0x3c, 0xda, 0xba, 0xa1, 0xbc, 0xe9, 0x36,
    0x3a, 0x3c, 0x85, 0xd4, 0x70, 0x3b, 0x33, 0xe5, 0x80, 0xbd,
    0xc2, 0xb0, 0x1d, 0xbd, 0xf5, 0xe1, 0x12, 0x3d, 0xd3, 0x82,
    0x03, 0xbc, 0xa9, 0x46, 0xa6, 0xbd, 0xdf, 0x5a, 0x84, 0xbd,
    0x2f, 0x3c, 0x56, 0xbd, 0x96, 0x3a, 0x15, 0xbd, 0xa2, 0xab,
    0x64, 0x3c, 0xf6, 0xe5, 0x19, 0xbd, 0x7c, 0x01, 0xc8, 0xbd,
    0x61, 0x0b, 0x39, 0xbd, 0x84, 0x1e, 0x6d, 0xbc, 0x04, 0xdf,
    0xc2, 0x3c, 0xee, 0x80, 0x2e, 0x3d, 0x26, 0x38, 0xb4, 0x3d,
    0x21, 0xba, 0xb1, 0xbc, 0x6b, 0xe4, 0x7b, 0xbd, 0x5d, 0xf0,
    0xf8, 0x3c, 0x0e, 0x9e, 0x95, 0x3d, 0xc4, 0x48, 0x43, 0x3d,
    0xa2, 0x47, 0x4f, 0x3d, 0xdc, 0x45, 0xe1, 0x3b, 0x5a, 0xf5,
    0xc1, 0x3c, 0xb2, 0xb1, 0x38, 0x3c, 0xc9, 0x5b, 0xa7, 0xbc,
    0x55, 0xde, 0xea, 0xbc, 0x68, 0xd3, 0x3e, 0xbd, 0x6a, 0x6a,
    0x0a, 0xbc, 0x12, 0x73, 0xef, 0xbd, 0x28, 0x77, 0x86, 0xbd,
    0x82, 0xb7, 0xaf, 0xbd, 0x5d, 0x82, 0x81, 0xbd, 0x15, 0xe8,
    0xaa, 0x3c, 0x8c, 0xad, 0x30, 0xbd, 0xb1, 0xaf, 0x95, 0x3c,
    0xb2, 0xa1, 0x53, 0x3c, 0xcf, 0x16, 0xae, 0xbd, 0x18, 0x22,
    0x9e, 0xbd, 0xa5, 0x76, 0x02, 0xbe, 0x06, 0x5d, 0x00, 0xbe,
    0x4c, 0xb0, 0x1c, 0xbe, 0x8e, 0xd0, 0x4b, 0xbd, 0x41, 0x2a,
    0x94, 0xbb, 0x6b, 0x31, 0x15, 0x3c, 0x21, 0xcc, 0x2a, 0xbd,
    0xd9, 0x62, 0x00, 0xbd, 0xae, 0x3c, 0x4b, 0xbd, 0x80, 0xc2,
    0x60, 0xbd, 0xa3, 0xab, 0xd2, 0xbd, 0xb8, 0x43, 0xad, 0xbd,
    0x39, 0x3a, 0xa9, 0xbd, 0x07, 0x92, 0xc2, 0x3c, 0xa4, 0xc3,
    0x36, 0xbd, 0xf2, 0xb7, 0x03, 0xbd, 0x34, 0xec, 0x8f, 0x3c,
    0xc7, 0xa2, 0xba, 0x3c, 0x9d, 0x94, 0x71, 0x3d, 0x9d, 0xd6,
    0x6a, 0xbb, 0xff, 0xb6, 0x3b, 0xbc, 0x7d, 0xa7, 0x6e, 0xbd,
    0xf3, 0x26, 0x06, 0xbe, 0x2c, 0xb4, 0xef, 0xbd, 0xfd, 0xf8,
    0x9e, 0xbd, 0x28, 0x62, 0x06, 0xbe, 0xd6, 0x90, 0xdf, 0xbc,
    0x51, 0x75, 0xa9, 0xbc, 0xa3, 0x69, 0x88, 0xbd, 0xcf, 0x20,
    0xc8, 0xbd, 0x27, 0x21, 0x01, 0xbd, 0x09, 0xb2, 0x34, 0xbb,
    0xa1, 0x6a, 0xf3, 0xbc, 0xb3, 0x50, 0xcb, 0xbd, 0x18, 0x53,
    0xe5, 0xbd, 0x35, 0x3d, 0x8a, 0xbd, 0x7a, 0x2c, 0x86, 0x3c,
    0x8c, 0x5c, 0x5c, 0xbd, 0xf5, 0x0a, 0x27, 0xbd, 0xd6, 0xfc,
    0xc0, 0xbd, 0xd0, 0xbf, 0xae, 0xbd, 0x93, 0x33, 0x05, 0xbe,
    0x5a, 0x98, 0x85, 0xbd, 0x29, 0xd0, 0x7e, 0xbc, 0x1f, 0xa0,
    0x09, 0x3d, 0x6b, 0x0d, 0x2b, 0xbd, 0x1d, 0xfc, 0xb4, 0xbc,
    0x31, 0x5e, 0xd2, 0x3c, 0xa2, 0xb5, 0x34, 0xba, 0xb7, 0x38,
    0x9f, 0xbd, 0x99, 0xa1, 0x16, 0xbe, 0xb0, 0x28, 0xa7, 0xbd,
    0xa7, 0x10, 0xd7, 0xbd, 0x1e, 0xee, 0xda, 0x3c, 0xe8, 0x7d,
    0x4a, 0xbd, 0xf8, 0x2e, 0x9c, 0x3d, 0xc6, 0xb4, 0xc2, 0x3d,
    0x50, 0x6a, 0xca, 0x3c, 0x8a, 0x53, 0xe3, 0x3a, 0x8b, 0xd7,
    0x84, 0xbd, 0xce, 0xf1, 0x41, 0xbd, 0x97, 0x3d, 0xd4, 0x3d,
    0x94, 0xb6, 0x92, 0x3d, 0xd6, 0x3e, 0x1f, 0x3d, 0xfc, 0x5d,
    0xc3, 0xbc, 0x2c, 0x43, 0x3f, 0x3d, 0xe1, 0xfd, 0x08, 0x3e,
    0xc8, 0x2b, 0x6f, 0x3d, 0x9f, 0xb6, 0xd4, 0x3c, 0x4f, 0xfb,
    0x6b, 0xbd, 0x23, 0x61, 0x7d, 0x3c, 0x66, 0xdc, 0xa7, 0x3c,
    0xde, 0x0d, 0x0c, 0xbd, 0x72, 0xc0, 0xa8, 0xbc, 0xbb, 0x81,
    0x70, 0x3d, 0x2e, 0xc9, 0x15, 0x3e, 0xfc, 0xaf, 0x76, 0xbd,
    0xfc, 0x03, 0xec, 0xbb, 0x22, 0xf7, 0x9d, 0xbd, 0xa4, 0xdc,
    0xf5, 0x3c, 0x53, 0x29, 0x5e, 0xbd, 0x2d, 0x72, 0xeb, 0x3b,
    0x47, 0xd1, 0x6a, 0xbd, 0x90, 0x0b, 0x7c, 0x3d, 0xac, 0x5e,
    0x33, 0x3c, 0x9a, 0xb2, 0x29, 0x3c, 0xd6, 0x49, 0x35, 0xbe,
    0x04, 0x94, 0x65, 0xbe, 0xbf, 0xf6, 0x0c, 0xbe, 0x2d, 0x2e,
    0x16, 0xbe, 0x39, 0x74, 0x2d, 0xbe, 0xcf, 0x19, 0x4b, 0xbd,
    0xc7, 0x7b, 0xcc, 0xbd, 0xd7, 0x3b, 0x58, 0xbe, 0x2a, 0x91,
    0x2a, 0xbe, 0x3c, 0xad, 0x6c, 0xbd, 0x7b, 0x43, 0x05, 0xbe,
    0xaf, 0x5f, 0xe5, 0xbd, 0x76, 0x79, 0x59, 0xbb, 0xaf, 0x20,
    0x2c, 0xbd, 0xe6, 0x9c, 0x64, 0x3c, 0x42, 0x6b, 0xdb, 0x3d,
    0x74, 0xd1, 0x9d, 0xbc, 0xb6, 0xdb, 0xae, 0xbd, 0x38, 0xdf,
    0x19, 0xbe, 0x70, 0x5a, 0xc5, 0xbd, 0x2f, 0x19, 0x9d, 0x3d,
    0xc9, 0x89, 0x28, 0x3d, 0x83, 0x86, 0xfa, 0xbc, 0xbb, 0xab,
    0xa3, 0xbc, 0xc1, 0x06, 0xc1, 0xbc, 0x7a, 0x1e, 0x08, 0xbe,
    0x55, 0xbd, 0x99, 0xbc, 0xd4, 0xed, 0xd2, 0x3d, 0x97, 0xbc,
    0xdc, 0xbd, 0x65, 0x1c, 0x15, 0xbe, 0xcd, 0xf8, 0x2b, 0xbd,
    0x2f, 0xd5, 0x26, 0xbd, 0xf8, 0xe7, 0xc2, 0xbd, 0x9a, 0xee,
    0x6b, 0xbd, 0xf3, 0x39, 0x0a, 0xbe, 0x1a, 0x5d, 0x32, 0xbe,
    0xa5, 0xc8, 0x21, 0xbb, 0x34, 0xea, 0x91, 0xbb, 0x72, 0x25,
    0x21, 0xbe, 0xcc, 0xf3, 0xd8, 0xbc, 0xe5, 0x39, 0x89, 0xbd,
    0x12, 0x76, 0xe8, 0xbd, 0x0d, 0xb8, 0xfa, 0xbd, 0x04, 0x13,
    0x78, 0xbe, 0x5e, 0x19, 0x36, 0xbe, 0xd6, 0x5f, 0x41, 0xbe,
    0x03, 0xd4, 0xed, 0xbd, 0x5b, 0x9e, 0xcf, 0x3d, 0x26, 0x8f,
    0xbe, 0xbd, 0x36, 0x38, 0x05, 0xbe, 0xd8, 0xb6, 0x03, 0x3c,
    0xfb, 0xa5, 0xf4, 0xbd, 0xe2, 0xa5, 0x66, 0xbe, 0xb0, 0x21,
    0x82, 0xbd, 0xc3, 0x15, 0x5c, 0xbd, 0x67, 0x9f, 0xd7, 0xbd,
    0xb7, 0xe9, 0x84, 0xbd, 0x98, 0x0d, 0x85, 0xbd, 0xb1, 0x79,
    0x07, 0xbe, 0x9e, 0x1f, 0xe3, 0xbd, 0xbd, 0x15, 0x6c, 0xbd,
    0x68, 0xe3, 0xd6, 0xbd, 0xf0, 0x15, 0xc7, 0xbd, 0x26, 0x56,
    0xea, 0xbd, 0xe2, 0x8e, 0xa8, 0xbd, 0x62, 0x74, 0x23, 0x3d,
    0x6d, 0x0f, 0x19, 0xbe, 0x42, 0xaf, 0x0d, 0xbe, 0xb1, 0x4a,
    0x90, 0x3c, 0x4f, 0x80, 0x20, 0xbe, 0x62, 0x36, 0x57, 0xbe,
    0xba, 0x5d, 0x3a, 0xbe, 0x83, 0x87, 0xdd, 0xbd, 0x3a, 0xdc,
    0x70, 0xbd, 0xe7, 0x4d, 0x96, 0xbd, 0x34, 0x32, 0xda, 0xbd,
    0x93, 0xb2, 0x9d, 0xbd, 0x1b, 0xf2, 0xc8, 0xbd, 0x5f, 0xde,
    0x25, 0xbe, 0x6e, 0x23, 0x45, 0xbe, 0x81, 0xc1, 0x49, 0xbd,
    0x62, 0x15, 0xb7, 0xbd, 0x75, 0xa8, 0xd1, 0xbc, 0x56, 0xfe,
    0xc4, 0xbd, 0x3d, 0xf8, 0xef, 0xbd, 0xaf, 0xbf, 0xc5, 0xbd,
    0x09, 0x67, 0x16, 0xbe, 0xb4, 0xca, 0x84, 0xbd, 0x06, 0x26,
    0x0c, 0x3d, 0x67, 0xd4, 0xed, 0xbd, 0x11, 0x7a, 0x05, 0x3d,
    0xd5, 0x5e, 0x8d, 0xbc, 0xeb, 0xd9, 0x3f, 0xbe, 0x40, 0x29,
    0x2b, 0xbe, 0xa4, 0x05, 0xf4, 0xbd, 0x9c, 0x38, 0x1a, 0x3d,
    0x7e, 0x0c, 0x3e, 0x3d, 0x6d, 0x6d, 0xfa, 0xbd, 0x90, 0x14,
    0x24, 0xbe, 0x1c, 0x93, 0x7d, 0xbd, 0x49, 0x60, 0x98, 0xbd,
    0x1c, 0x43, 0x0a, 0x3d, 0xca, 0x4a, 0x98, 0x3c, 0x22, 0x7e,
    0xb8, 0xbd, 0x22, 0x6b, 0x08, 0xbe, 0x4f, 0x0a, 0x12, 0xbe,
    0x69, 0x03, 0xe1, 0xbd, 0x46, 0x16, 0xbf, 0xbd, 0x2b, 0x1f,
    0x15, 0x3c, 0x41, 0x89, 0x5f, 0x3d, 0xef, 0xda, 0x88, 0x3d,
    0x9e, 0x7e, 0x92, 0xbd, 0xb0, 0x14, 0xb0, 0xbd, 0x5c, 0x21,
    0x14, 0xbc, 0xd9, 0xbd, 0x09, 0xbd, 0xe5, 0x46, 0x1b, 0xbe,
    0x6c, 0x42, 0x16, 0xbe, 0x7e, 0xcd, 0x86, 0xbc, 0x39, 0x98,
    0x75, 0xbd, 0x29, 0xd2, 0x00, 0xbd, 0x84, 0x6b, 0x07, 0xbe,
    0x50, 0xd2, 0x11, 0xbe, 0xfa, 0x74, 0x5c, 0xbe, 0x57, 0x3c,
    0x0b, 0xbd, 0x10, 0xd0, 0x05, 0xbe, 0x6d, 0x06, 0x87, 0xbd,
    0xba, 0x51, 0xab, 0xbd, 0x08, 0xb9, 0x57, 0xbe, 0x87, 0x82,
    0x5f, 0xbd, 0x2d, 0x37, 0x8a, 0x3c, 0xb6, 0x18, 0x35, 0xbd,
    0x92, 0x59, 0x03, 0x3d, 0x50, 0x82, 0x43, 0xbd, 0xe3, 0x74,
    0x13, 0x3d, 0xe3, 0xde, 0xb6, 0x3c, 0x94, 0xa5, 0x45, 0x3c,
    0xcc, 0x09, 0x07, 0x3c, 0x87, 0xba, 0x4a, 0xbd, 0x24, 0xa4,
    0xc5, 0x3c, 0x87, 0xf8, 0xc7, 0xbc, 0xf4, 0xfe, 0xa9, 0xbc,
    0xf2, 0xe8, 0x71, 0xbd, 0x88, 0xf0, 0x10, 0x3c, 0xcf, 0x4b,
    0x85, 0xbc, 0x30, 0x1a, 0xf4, 0xbb, 0x7e, 0x18, 0x25, 0xbd,
    0x3c, 0x59, 0x7b, 0xba, 0x26, 0xba, 0x6c, 0x3c, 0x3b, 0xdc,
    0xc9, 0xbc, 0xd1, 0x66, 0xd3, 0xbb, 0xd8, 0xc3, 0x0e, 0xbd,
    0xe5, 0x1f, 0xa6, 0x3c, 0x60, 0xc8, 0xe9, 0xbc, 0x9b, 0x8f,
    0xc5, 0x3c, 0xff, 0xc5, 0xba, 0x3c, 0xff, 0x37, 0x23, 0xbd,
    0x8a, 0x7e, 0x58, 0xbd, 0xff, 0xbb, 0xe1, 0x3c, 0xe7, 0x9a,
    0xad, 0x3c, 0xa7, 0xff, 0x6d, 0xbc, 0xfd, 0x36, 0x67, 0xbd,
    0x17, 0x22, 0xe4, 0xbc, 0x5d, 0xc6, 0xfe, 0xbc, 0xae, 0xa8,
    0xfd, 0x3c, 0xca, 0xfc, 0x47, 0x3c, 0xfb, 0xb9, 0x50, 0x3c,
    0x7c, 0xd7, 0x8c, 0x3c, 0xaf, 0x9d, 0x6e, 0xbd, 0x11, 0xe7,
    0x5b, 0x3b, 0x8a, 0x2a, 0x97, 0x3c, 0xc6, 0xe5, 0xd8, 0xbc,
    0x31, 0xae, 0xf7, 0xbc, 0x44, 0x6a, 0xb9, 0x3c, 0x51, 0x17,
    0x4b, 0xbd, 0x53, 0xe8, 0x8e, 0x3c, 0xf7, 0x26, 0x14, 0xbd,
    0x6d, 0x5e, 0x83, 0xbc, 0x51, 0x65, 0x94, 0x3c, 0x17, 0x0a,
    0x55, 0xbd, 0xa0, 0x9d, 0xe9, 0x3c, 0x74, 0x28, 0x20, 0xbd,
    0x8d, 0xcc, 0x43, 0xbd, 0xf4, 0xff, 0x80, 0x3b, 0xdc, 0x6d,
    0x79, 0x3c, 0x72, 0xc0, 0x33, 0xbd, 0x1d, 0x1f, 0xe6, 0x3c,
    0xfc, 0x62, 0xcc, 0x3c, 0x80, 0x76, 0x19, 0xbd, 0xc5, 0x41,
    0xa5, 0x3c, 0x58, 0xfc, 0x1e, 0x3d, 0x44, 0x34, 0x86, 0x3c,
    0x2e, 0xfc, 0x37, 0xbd, 0xf0, 0xcc, 0x83, 0x3c, 0x59, 0x95,
    0xf4, 0xbc, 0xe1, 0x05, 0x58, 0xbb, 0x9b, 0x0c, 0x11, 0x3c,
    0x9e, 0x37, 0xac, 0xbb, 0x98, 0x56, 0xf0, 0xbb, 0xae, 0x2c,
    0xdd, 0x3c, 0x0a, 0x35, 0xe3, 0xbc, 0x5a, 0x1d, 0x5e, 0x3c,
    0x40, 0xbe, 0xe9, 0x3c, 0x78, 0xbf, 0xfa, 0x3b, 0x30, 0x77,
    0x29, 0xbc, 0x1c, 0x09, 0x23, 0xbd, 0x9c, 0x6e, 0xf2, 0xbc,
    0x5b, 0x10, 0x28, 0xbd, 0x1a, 0x02, 0x14, 0xbd, 0x38, 0xe7,
    0x44, 0xbd, 0x20, 0x19, 0x37, 0x3b, 0xac, 0x03, 0x17, 0x3d,
    0xdd, 0x47, 0x65, 0x3c, 0x88, 0xb6, 0xb0, 0x3c, 0x6e, 0xb7,
    0x3b, 0xba, 0x88, 0x8c, 0x1f, 0x3d, 0x57, 0x82, 0xdb, 0xbb,
    0x58, 0xac, 0x76, 0xbc, 0x2c, 0x97, 0xd6, 0x3a, 0x89, 0x60,
    0x13, 0xbd, 0x64, 0xbd, 0x54, 0xbd, 0x7c, 0x17, 0xfc, 0xba,
    0x6f, 0xea, 0x98, 0x3c, 0x6c, 0xac, 0x13, 0x3d, 0xec, 0xdb,
    0x56, 0xbc, 0xa6, 0x8f, 0x49, 0xbd, 0xb1, 0xb6, 0xb8, 0x3c,
    0x9d, 0x81, 0x0a, 0xbd, 0xbc, 0x4c, 0x0c, 0xbd, 0x1f, 0x8d,
    0x0e, 0xbd, 0xfc, 0x66, 0x46, 0xbd, 0x37, 0x69, 0xd7, 0x3c,
    0x6a, 0xaf, 0x30, 0xbc, 0x4d, 0x73, 0x93, 0x3c, 0xc8, 0xd2,
    0xa0, 0xbc, 0x56, 0xf0, 0xb5, 0xbc, 0xb0, 0x74, 0xe3, 0xbc,
    0x8e, 0x9a, 0x93, 0x3c, 0xf0, 0x88, 0xb0, 0xbb, 0xc0, 0x20,
    0xfb, 0xbc, 0xf5, 0x36, 0xaa, 0x3c, 0x71, 0x6b, 0x0d, 0xbd,
    0x83, 0x83, 0x14, 0xbd, 0x38, 0xbe, 0x1c, 0x3d, 0x51, 0x06,
    0xd5, 0x3b, 0x13, 0x25, 0x13, 0x3d, 0x2c, 0x1f, 0x06, 0xbc,
    0xaf, 0x92, 0xe9, 0x3c, 0xf8, 0x45, 0x18, 0xbd, 0x9c, 0x1e,
    0x5b, 0xbd, 0x76, 0x17, 0x8a, 0xbc, 0x0b, 0x6d, 0xd5, 0xbc,
    0x97, 0xd3, 0x38, 0xbd, 0x45, 0x6e, 0xaf, 0x3c, 0x61, 0x9f,
    0x3f, 0xbd, 0xfc, 0xda, 0xf1, 0xbb, 0x56, 0xcb, 0x66, 0xbd,
    0x9e, 0xe4, 0x09, 0x3d, 0x74, 0x48, 0x26, 0xbd, 0x08, 0x59,
    0x4e, 0x3b, 0x56, 0x3e, 0x51, 0xbd, 0xfd, 0xda, 0x15, 0x3d,
    0xaa, 0xea, 0x4b, 0xbd, 0xb4, 0x0a, 0x05, 0xbc, 0x88, 0x12,
    0xd2, 0xbb, 0x71, 0xd6, 0x5a, 0xbd, 0x5a, 0xde, 0x5a, 0xbd,
    0x12, 0x7f, 0xcb, 0xb8, 0xbf, 0x34, 0x8a, 0x3c, 0xbc, 0xc8,
    0xb5, 0x3c, 0x29, 0x1a, 0xae, 0x3c, 0x70, 0x0c, 0x0a, 0xbd,
    0x54, 0xba, 0xea, 0xbc, 0xd9, 0x54, 0x3f, 0xbd, 0x24, 0x1c,
    0x05, 0x3d, 0x70, 0xce, 0x9b, 0x3b, 0xff, 0xd5, 0x27, 0xbd,
    0x0d, 0xbd, 0x15, 0x3b, 0xbd, 0x16, 0x20, 0x3c, 0xac, 0x30,
    0xc1, 0x3c, 0xad, 0xc5, 0xf9, 0x3c, 0x42, 0xac, 0x12, 0x3d,
    0xa6, 0x23, 0xad, 0xbb, 0xe8, 0x68, 0xae, 0xbc, 0x74, 0x37,
    0x02, 0xbd, 0xbd, 0x1c, 0x9c, 0xbb, 0x87, 0xb6, 0x54, 0xbd,
    0xc9, 0x10, 0x46, 0xbd, 0x70, 0xf4, 0x1f, 0xbd, 0xe5, 0x92,
    0x76, 0x3c, 0x2d, 0xb4, 0x24, 0x3d, 0xb1, 0xec, 0xce, 0xbb,
    0x25, 0xe4, 0x3f, 0x3b, 0x43, 0xbe, 0xe4, 0xbc, 0x96, 0xb1,
    0x59, 0xbd, 0x4b, 0x51, 0x64, 0xbd, 0x86, 0xe9, 0xae, 0x3c,
    0x65, 0xe3, 0xfe, 0xbc, 0xeb, 0xb8, 0x6d, 0xbd, 0x3f, 0xb1,
    0xbd, 0x3b, 0x99, 0x38, 0xbd, 0xbc, 0xae, 0xd6, 0x7b, 0x3c,
    0xa8, 0xde, 0x0c, 0xbd, 0xcf, 0x91, 0xb3, 0x3c, 0x56, 0x4b,
    0xfb, 0x3c, 0x9e, 0x65, 0x6a, 0x3c, 0x93, 0xb9, 0x87, 0x3c,
    0xb7, 0x75, 0x34, 0x3b, 0x41, 0xd2, 0xaf, 0xbc, 0xd5, 0xf9,
    0xb2, 0xbb, 0xd1, 0xb5, 0x17, 0xbd, 0x99, 0x29, 0xa4, 0x3c,
    0xf8, 0x9d, 0xac, 0xbc, 0x78, 0x61, 0x32, 0xbc, 0xcb, 0x73,
    0x36, 0x3c, 0xdd, 0x77, 0x07, 0x3c, 0x0d, 0x61, 0xc4, 0x3c,
    0x69, 0xe5, 0x10, 0x3d, 0x3c, 0xe9, 0x4d, 0xbd, 0x55, 0xf7,
    0xc2, 0x3c, 0x69, 0x52, 0xf4, 0xbc, 0xaa, 0x2a, 0x18, 0xbd,
    0x9b, 0xaf, 0xe8, 0xbc, 0xdb, 0x69, 0x71, 0xbc, 0x76, 0x51,
    0x0e, 0x3d, 0xd6, 0xcd, 0x3a, 0xbd, 0xcc, 0xfa, 0xf3, 0x3c,
    0x5d, 0x7e, 0x1c, 0xbd, 0x66, 0xad, 0x68, 0xbd, 0xd5, 0x53,
    0x3c, 0xbd, 0x19, 0x7b, 0xfa, 0xbc, 0xa8, 0x6b, 0x9a, 0x3c,
    0xa6, 0x06, 0x09, 0xbd, 0x81, 0x43, 0x13, 0x3d, 0x50, 0xda,
    0xf2, 0xbc, 0x4f, 0x0d, 0x81, 0xbc, 0xad, 0x38, 0x4d, 0xbd,
    0xd0, 0xbb, 0x1a, 0xbd, 0x30, 0xf6, 0xf5, 0xb9, 0xd1, 0xe0,
    0x0d, 0x3d, 0xc6, 0x71, 0x38, 0xbd, 0x8f, 0xce, 0x23, 0xbd,
    0x3c, 0xa0, 0xe8, 0xbc, 0x41, 0x9b, 0x96, 0xbc, 0x03, 0x02,
    0x8f, 0xbb, 0x53, 0x51, 0x68, 0xbc, 0x4c, 0x96, 0x03, 0x3b,
    0xaa, 0xac, 0x0d, 0x3d, 0xfd, 0xec, 0xfe, 0xbc, 0x6f, 0xae,
    0x2c, 0xbd, 0x9d, 0xc0, 0x14, 0x3d, 0x69, 0xba, 0x6b, 0xbd,
    0x23, 0xf7, 0x1c, 0xbd, 0xba, 0xcb, 0x30, 0xbd, 0x18, 0x84,
    0x71, 0xba, 0xf9, 0x20, 0xd5, 0x3c, 0x14, 0x8a, 0x92, 0xbc,
    0xa6, 0xdf, 0xd7, 0xbb, 0xb1, 0x36, 0x28, 0xbd, 0x1b, 0x89,
    0x0b, 0xbd, 0x8a, 0x07, 0x0e, 0x3c, 0xe1, 0xab, 0x40, 0xbd,
    0x0a, 0x28, 0x46, 0xbd, 0x21, 0x8b, 0x1b, 0x3d, 0x5e, 0xc3,
    0xc0, 0xbc, 0x9d, 0x20, 0x15, 0x3d, 0xee, 0x59, 0x1a, 0x3b,
    0xfe, 0x9f, 0xcc, 0xbc, 0x5c, 0x4c, 0x8a, 0xbc, 0x15, 0xc3,
    0x2d, 0xbd, 0x10, 0x0f, 0xd8, 0xbc, 0x3e, 0xc2, 0x43, 0xbd,
    0x5c, 0x1a, 0x11, 0x3d, 0x0d, 0xe0, 0x0e, 0x3d, 0x70, 0x08,
    0xc9, 0xbc, 0x5f, 0x71, 0x05, 0x3d, 0x9f, 0xe3, 0x44, 0xbc,
    0xbf, 0x73, 0x64, 0xbc, 0x45, 0xcd, 0xaa, 0x3b, 0xa9, 0xcb,
    0x9f, 0xbc, 0x77, 0xf7, 0x12, 0xbd, 0x71, 0xd3, 0x72, 0xbd,
    0x57, 0xb7, 0x61, 0x3c, 0x89, 0xcc, 0x31, 0xbd, 0x68, 0x27,
    0x18, 0xbd, 0xa6, 0xfa, 0x58, 0xbc, 0xca, 0xc8, 0x2c, 0xbc,
    0xf2, 0xdd, 0xbb, 0x3c, 0xba, 0x0d, 0x43, 0x3c, 0xf8, 0x9b,
    0x3d, 0x3c, 0xbb, 0x94, 0x92, 0xbc, 0x1b, 0x1b, 0x83, 0xbc,
    0x5c, 0x23, 0xc6, 0x3c, 0x32, 0xd1, 0x9c, 0x3b, 0x35, 0x75,
    0x8c, 0xbc, 0xe1, 0x47, 0x39, 0x3c, 0x3c, 0x64, 0x49, 0xbd,
    0x4e, 0x0a, 0xe9, 0xbc, 0x23, 0xae, 0x2b, 0xbc, 0x17, 0x32,
    0x10, 0xbd, 0x73, 0xca, 0x0e, 0xbd, 0xf9, 0xdb, 0x13, 0xbd,
    0xe3, 0x27, 0x44, 0xbd, 0xed, 0x75, 0x4d, 0xbd, 0xed, 0xc2,
    0xa5, 0xba, 0xba, 0x51, 0xab, 0x3b, 0xf0, 0xeb, 0x43, 0xbd,
    0xd8, 0xac, 0xf3, 0xbb, 0x8e, 0x8e, 0xda, 0x3c, 0xcf, 0xcf,
    0x20, 0xbd, 0x53, 0xc7, 0xb5, 0x3b, 0x55, 0x7a, 0x52, 0x3c,
    0x16, 0x4d, 0x14, 0x3a, 0xb5, 0x95, 0xbc, 0xbc, 0xfa, 0xbd,
    0x20, 0x3d, 0x79, 0xc1, 0xe3, 0x3c, 0x6a, 0xb5, 0x2a, 0xbc,
    0x46, 0x1c, 0x3f, 0xbd, 0x4e, 0x9c, 0x54, 0xbd, 0x99, 0x64,
    0x6b, 0xbb, 0x8a, 0x7c, 0x03, 0x3d, 0x91, 0x94, 0x72, 0xbd,
    0xb8, 0x5d, 0xfe, 0xbc, 0x92, 0x85, 0xeb, 0xbc, 0x41, 0xe5,
    0xf5, 0xba, 0x6c, 0x38, 0xae, 0x3c, 0x88, 0x2f, 0x01, 0xbc,
    0x0d, 0xdf, 0xd1, 0x3c, 0x76, 0x52, 0xe9, 0xbc, 0x73, 0x3a,
    0x94, 0xbc, 0x95, 0xcd, 0x3d, 0xbd, 0x0c, 0xbc, 0xc1, 0x3b,
    0xc9, 0x8f, 0x1b, 0xbc, 0x7d, 0xf8, 0x97, 0xbb, 0x51, 0x8f,
    0x98, 0x3c, 0x80, 0x31, 0x0f, 0x3c, 0x3b, 0x5f, 0x29, 0xbd,
    0x49, 0xd4, 0xbb, 0xbb, 0x24, 0xe4, 0xaa, 0xbc, 0xe2, 0x83,
    0x40, 0xbd, 0xee, 0x38, 0x09, 0x3d, 0xfa, 0xdd, 0xf9, 0xbc,
    0xb0, 0x0a, 0x14, 0x3c, 0x39, 0x25, 0x62, 0x3c, 0x96, 0x56,
    0x24, 0x3d, 0xd5, 0x8b, 0x85, 0x3c, 0x48, 0x4f, 0x17, 0x3d,
    0x3b, 0xf8, 0x42, 0xbd, 0x00, 0x3d, 0xdf, 0xbc, 0x66, 0x7b,
    0x10, 0x3d, 0x33, 0xae, 0x9a, 0x3c, 0xae, 0x2f, 0x1f, 0x3d,
    0xe4, 0xfc, 0xcf, 0xbc, 0x73, 0xbc, 0xfb, 0x3c, 0xef, 0x64,
    0xae, 0x3c, 0x90, 0xbd, 0xa2, 0xbc, 0x40, 0xcf, 0x4b, 0xbc,
    0x28, 0x01, 0x13, 0x3c, 0xfc, 0x30, 0x42, 0xbd, 0x64, 0x0d,
    0xb6, 0xbc, 0x41, 0x98, 0x0a, 0xbd, 0xd2, 0x43, 0xe0, 0xb9,
    0x78, 0x1e, 0xde, 0xbc, 0x2a, 0x6f, 0x1b, 0xbc, 0x3a, 0x42,
    0x1f, 0x3d, 0x5a, 0x45, 0xdf, 0xbc, 0xb8, 0xc1, 0x2e, 0xbd,
    0x88, 0x8f, 0xaa, 0x3c, 0x90, 0x3e, 0x08, 0x3d, 0xa3, 0x15,
    0xe7, 0xbc, 0xdd, 0x52, 0x88, 0xbc, 0xbd, 0xd6, 0x66, 0x3c,
    0xd2, 0x02, 0x38, 0xbd, 0xec, 0xea, 0xe2, 0xbc, 0x0d, 0xa4,
    0xd9, 0xbb, 0xdb, 0xbf, 0xf3, 0xbb, 0xf7, 0x9d, 0x9f, 0x3c,
    0x8e, 0x8a, 0x04, 0xbd, 0x5e, 0x46, 0x1f, 0xbd, 0x57, 0xb4,
    0x6a, 0xbc, 0xd9, 0xe4, 0x4e, 0x3b, 0x57, 0x42, 0x26, 0xbc,
    0xf4, 0x3d, 0x40, 0xbd, 0x98, 0xe9, 0x0f, 0xbc, 0xda, 0x38,
    0x13, 0x3d, 0x6e, 0xdc, 0x16, 0x3d, 0x5a, 0xb2, 0x0b, 0xbc,
    0x40, 0x56, 0x52, 0xbb, 0x39, 0xda, 0xd1, 0xbc, 0x99, 0x92,
    0x82, 0xbc, 0x4d, 0x8d, 0x3a, 0xbc, 0x42, 0xe2, 0x21, 0xbd,
    0x4d, 0xd1, 0xdf, 0x3c, 0x9f, 0x5e, 0x5a, 0x3c, 0x26, 0xab,
    0x44, 0xbd, 0xdc, 0xa7, 0x91, 0x3c, 0xc1, 0xc0, 0x05, 0x3d,
    0x3c, 0x71, 0xb3, 0x3c, 0x77, 0xb2, 0x72, 0x3c, 0x38, 0x33,
    0x06, 0x3c, 0xb8, 0x85, 0x3f, 0xbd, 0xa0, 0xc2, 0x1f, 0xbd,
    0xf0, 0xbd, 0xfa, 0x3c, 0xcf, 0x79, 0x0c, 0xbd, 0x47, 0x3e,
    0xf1, 0xba, 0xaf, 0x7e, 0xa5, 0xbb, 0x31, 0xdf, 0x93, 0x3c,
    0x5a, 0xd6, 0x3d, 0x3c, 0x54, 0x86, 0x72, 0xbd, 0xd4, 0x3c,
    0x1b, 0x3d, 0xa9, 0xf8, 0x70, 0xbd, 0x58, 0x3c, 0xcb, 0xbb,
    0x5e, 0x25, 0x2a, 0xbd, 0x71, 0x57, 0x65, 0xbd, 0x3a, 0xbf,
    0x67, 0xbd, 0xaa, 0xaf, 0xe7, 0xbb, 0x34, 0x0b, 0xb0, 0x3b,
    0xe9, 0x9a, 0x46, 0xbd, 0x90, 0xf1, 0xa3, 0x3c, 0xd6, 0x3e,
    0x65, 0xbd, 0x0d, 0x5d, 0x80, 0xbc, 0x0e, 0x2f, 0x8f, 0x3c,
    0x54, 0x43, 0x50, 0xbd, 0x13, 0xdf, 0x42, 0x3c, 0xea, 0xd7,
    0xbe, 0xbc, 0xe3, 0x82, 0x59, 0xbd, 0x68, 0x76, 0x3b, 0xbd,
    0x85, 0x98, 0x92, 0xbc, 0xe9, 0xc1, 0x8c, 0xbc, 0x3c, 0x24,
    0x2e, 0xbd, 0x3d, 0x8e, 0x65, 0xbd, 0x8c, 0x3f, 0x45, 0xbd,
    0x39, 0x96, 0x02, 0xbc, 0xcd, 0x30, 0x0c, 0x3d, 0x0f, 0x65,
    0x8c, 0x3c, 0x42, 0xea, 0x43, 0xbd, 0xd8, 0x8a, 0xf6, 0xbb,
    0xd3, 0x86, 0x9d, 0x3c, 0x62, 0x65, 0xe6, 0x3b, 0x0e, 0xb5,
    0x24, 0x3d, 0x8e, 0x00, 0xda, 0xbc, 0x13, 0xdc, 0x47, 0x3c,
    0x6c, 0x27, 0x69, 0x3b, 0x5e, 0x40, 0x0a, 0x3c, 0xca, 0x78,
    0x9c, 0xbc, 0xf4, 0x9f, 0xeb, 0xba, 0x64, 0xb4, 0x0c, 0xbd,
    0x6a, 0xc6, 0x39, 0xbd, 0x43, 0x3d, 0x0f, 0xbc, 0x9c, 0xca,
    0x9c, 0x39, 0x1a, 0x49, 0x98, 0x3c, 0x80, 0xce, 0xd7, 0x3a,
    0x02, 0x06, 0x82, 0xbc, 0x0b, 0x40, 0x2c, 0x3c, 0xa6, 0x73,
    0x10, 0x3d, 0x51, 0x89, 0x04, 0xbd, 0x43, 0x50, 0x2c, 0x3c,
    0xbb, 0xfe, 0x68, 0xbc, 0x3c, 0x8c, 0xcc, 0xba, 0xd7, 0x71,
    0x7a, 0x3c, 0xf2, 0xaf, 0xbd, 0x3b, 0xe9, 0xa5, 0xe1, 0x3c,
    0xa5, 0xda, 0x85, 0x3c, 0xe6, 0x40, 0xc3, 0xbc, 0x19, 0xb8,
    0x48, 0x3c, 0x18, 0xbd, 0x17, 0x3c, 0xf2, 0x39, 0x31, 0xbd,
    0xa8, 0xdc, 0x09, 0x3d, 0x0b, 0x58, 0x79, 0x3b, 0x2e, 0x16,
    0xbd, 0x3c, 0xfa, 0x33, 0xd7, 0x3a, 0x25, 0xf8, 0xaa, 0x3c,
    0xc4, 0x5a, 0x1c, 0x3d, 0x4d, 0xb8, 0xc0, 0xbb, 0xbb, 0xc3,
    0x01, 0x3d, 0xab, 0x9c, 0xb1, 0x3c, 0xea, 0x39, 0x09, 0x3d,
    0x57, 0xde, 0x8e, 0xbb, 0x44, 0xfb, 0x04, 0xbd, 0xe3, 0xf6,
    0xf2, 0xbc, 0xb0, 0xc4, 0x14, 0x3a, 0xeb, 0x5d, 0xcb, 0x3b,
    0xa0, 0x1b, 0xb0, 0xbb, 0x2c, 0xba, 0xb2, 0x3c, 0xde, 0x5b,
    0x90, 0x3c, 0x64, 0xa5, 0xab, 0x3c, 0x90, 0xdb, 0x0a, 0xbd,
    0xcf, 0x8f, 0x1e, 0x3d, 0xf8, 0x9e, 0x15, 0xbd, 0x05, 0xf1,
    0xb1, 0xbc, 0x3c, 0x3a, 0x52, 0xbd, 0xdd, 0x9a, 0x1b, 0x3d,
    0x58, 0xbc, 0xe3, 0x3b, 0x02, 0x78, 0xb0, 0x3c, 0x52, 0x45,
    0xed, 0x3c, 0x4d, 0x8a, 0x80, 0xbb, 0x2f, 0x80, 0xe7, 0x3c,
    0xe7, 0xb8, 0x08, 0x3b, 0xb2, 0x4b, 0x3f, 0xbc, 0x81, 0x6c,
    0xd6, 0x3b, 0x09, 0xda, 0x90, 0xbb, 0xcb, 0x82, 0xbb, 0xbc,
    0xba, 0xd1, 0x55, 0x3c, 0xb3, 0x0e, 0x33, 0xbd, 0x4d, 0xba,
    0x0f, 0xbd, 0xac, 0x7e, 0xba, 0xbc, 0x8f, 0x7b, 0x21, 0xbd,
    0x50, 0xad, 0x0c, 0xbd, 0x0c, 0x49, 0x05, 0xbd, 0x22, 0xac,
    0x27, 0xbd, 0xdb, 0xd9, 0x8a, 0x3a, 0xcf, 0x52, 0x04, 0xbd,
    0xa5, 0x4f, 0x1f, 0x3d, 0x7a, 0xbd, 0xb4, 0x3c, 0x10, 0x9c,
    0xc6, 0x3c, 0x7a, 0xc2, 0x49, 0xbd, 0x45, 0xac, 0x04, 0xbd,
    0xae, 0x72, 0x21, 0x3d, 0xdf, 0x57, 0x1b, 0x3d, 0xed, 0xdc,
    0x1d, 0xbc, 0x55, 0x5a, 0xf2, 0xbb, 0x0a, 0x4f, 0xf9, 0x3b,
    0x25, 0x8b, 0x5f, 0xbd, 0x88, 0xf1, 0x15, 0xbd, 0x83, 0x46,
    0xb2, 0x3c, 0x9a, 0x9a, 0x0a, 0xbd, 0xe2, 0x1c, 0xc8, 0xbc,
    0xab, 0x6a, 0x02, 0x3d, 0x9b, 0x22, 0x0e, 0xbd, 0x57, 0x53,
    0x8a, 0xba, 0xa8, 0x98, 0xd2, 0xbc, 0x10, 0xf5, 0x4d, 0x3b,
    0x12, 0xfa, 0x41, 0xbd, 0xaf, 0x2b, 0x67, 0xbd, 0x07, 0x0c,
    0x3a, 0xbc, 0xd3, 0xd3, 0xcb, 0x3c, 0x61, 0xa6, 0x13, 0x3d,
    0xe1, 0x64, 0xe4, 0xbc, 0x31, 0xef, 0xa1, 0x3c, 0x84, 0xbb,
    0xea, 0x3b, 0xf9, 0xca, 0x7a, 0x3b, 0xa0, 0xc5, 0x7b, 0xbc,
    0x1b, 0x04, 0xe3, 0x3d, 0x79, 0x9c, 0x4c, 0x3e, 0x14, 0xa6,
    0x21, 0x3e, 0xd9, 0x13, 0x07, 0x3e, 0xfb, 0x7e, 0xca, 0x3d,
    0x26, 0x89, 0xad, 0x3d, 0xad, 0x8c, 0x4a, 0x3d, 0x48, 0x0a,
    0x35, 0x3e, 0x42, 0x75, 0x3c, 0x3e, 0x22, 0xbe, 0x80, 0x3e,
    0xd5, 0x13, 0x6f, 0x3e, 0xad, 0x16, 0x5f, 0x3e, 0x10, 0x80,
    0x7d, 0x3e, 0x3d, 0xa5, 0x99, 0x3e, 0x19, 0x19, 0x66, 0x3e,
    0x05, 0x18, 0x8e, 0x3e, 0xeb, 0x5f, 0x57, 0x3e, 0xd3, 0xf9,
    0x7b, 0x3e, 0x49, 0x20, 0x76, 0x3e, 0x3f, 0x90, 0x8a, 0x3e,
    0xd8, 0xf0, 0x21, 0x3e, 0xcc, 0xe8, 0x20, 0x3e, 0xc5, 0x46,
    0x10, 0x3e, 0x0f, 0x59, 0xbe, 0x3d, 0xff, 0x8e, 0x16, 0x3e,
    0x00, 0x58, 0x0e, 0xbd, 0xe4, 0x80, 0x35, 0x3d, 0x5e, 0x1d,
    0x7c, 0x3d, 0x1e, 0xeb, 0xfb, 0xbc, 0x15, 0x95, 0xc0, 0x3c,
    0x74, 0xf9, 0x91, 0xbd, 0x36, 0x73, 0x48, 0xbb, 0x99, 0x54,
    0xc0, 0xbc, 0x31, 0xd8, 0xbb, 0xbd, 0x57, 0xf9, 0xb2, 0xbd,
    0xf5, 0xbe, 0x73, 0x3c, 0xb3, 0xca, 0x83, 0x3d, 0x13, 0x2a,
    0x12, 0x3e, 0xca, 0xe3, 0x02, 0x3e, 0xe7, 0x29, 0xd6, 0x3d,
    0x95, 0x5d, 0xd4, 0x3d, 0x78, 0xad, 0x44, 0x3d, 0x08, 0x28,
    0x51, 0xbc, 0x3f, 0x13, 0x5d, 0x3d, 0xf0, 0x2d, 0x12, 0x3d,
    0xa5, 0x00, 0xd5, 0xbb, 0xbb, 0x12, 0x0f, 0xbd, 0x5b, 0x57,
    0x9e, 0x3d, 0xa1, 0xef, 0x04, 0x3e, 0x04, 0x38, 0xb6, 0x3d,
    0x0b, 0xd7, 0x11, 0x3e, 0xc0, 0x45, 0xea, 0x3d, 0x94, 0xa3,
    0xd2, 0x3d, 0xae, 0x39, 0x20, 0x3e, 0xcc, 0x2a, 0x3e, 0x3e,
    0x77, 0x42, 0x82, 0x3e, 0x95, 0xb7, 0x32, 0x3e, 0x1c, 0x4d,
    0x5f, 0x3e, 0xab, 0x7d, 0x44, 0x3e, 0xae, 0xde, 0x5d, 0x3e,
    0xb5, 0xca, 0x67, 0x3e, 0xcf, 0xb5, 0x6d, 0x3e, 0x42, 0x96,
    0xc1, 0x3d, 0x2a, 0x44, 0xc5, 0x3c, 0x05, 0xb1, 0x78, 0xbd,
    0x56, 0xc7, 0x6e, 0x3d, 0x41, 0xc6, 0xf1, 0x3d, 0x1f, 0xc8,
    0xb6, 0x3c, 0xf7, 0x2e, 0x1a, 0x3e, 0xe5, 0x3b, 0x18, 0x3e,
    0x92, 0xf8, 0x24, 0x3e, 0xeb, 0xe4, 0x25, 0x3e, 0x3f, 0x6d,
    0x17, 0x3e, 0x2f, 0x68, 0xe2, 0x3d, 0x22, 0xa4, 0xb1, 0x3d,
    0xaa, 0x1c, 0x16, 0x3e, 0x57, 0xd4, 0xe3, 0x3c, 0x65, 0x08,
    0x1e, 0xbc, 0xe7, 0xb7, 0x8f, 0x3d, 0xd2, 0xd4, 0x30, 0x3e,
    0xaf, 0x81, 0xaa, 0x3d, 0x3a, 0x36, 0xdb, 0x39, 0xaa, 0xc5,
    0xea, 0x3d, 0x02, 0x41, 0x00, 0x3e, 0x8d, 0x75, 0x4a, 0x3d,
    0xf7, 0xff, 0x0b, 0x3d, 0x8a, 0x81, 0x31, 0xbd, 0xc9, 0x7e,
    0xa8, 0x3b, 0xe8, 0x83, 0xd1, 0x3c, 0xb0, 0x23, 0xa5, 0xbc,
    0x6a, 0x61, 0xbe, 0x3d, 0x96, 0xd9, 0x29, 0x3d, 0xcf, 0xbf,
    0xd4, 0x3d, 0x9d, 0xa6, 0x4f, 0x3c, 0x21, 0x70, 0xf5, 0x3c,
    0xf3, 0x44, 0x19, 0x3d, 0x60, 0xd8, 0x84, 0x3d, 0x27, 0xe6,
    0xf3, 0x3c, 0x05, 0xbd, 0x54, 0x3d, 0x2c, 0x08, 0xe7, 0x3c,
    0x39, 0xf6, 0x32, 0x3d, 0xb7, 0x65, 0x0f, 0x3c, 0xa2, 0x5a,
    0x31, 0x3d, 0x50, 0x8b, 0xc5, 0x3b, 0x78, 0xa7, 0x9b, 0x3d,
    0x75, 0x1f, 0xe3, 0x3c, 0xad, 0x79, 0xb5, 0x3d, 0xa6, 0xe3,
    0xc0, 0x3c, 0xde, 0x26, 0x1f, 0x3d, 0xf9, 0x3b, 0xa0, 0x3c,
    0xaa, 0x64, 0xa2, 0xbc, 0x63, 0x61, 0xda, 0xbc, 0x47, 0xcc,
    0x4b, 0xbc, 0x70, 0x55, 0x95, 0x3c, 0x53, 0xd2, 0x44, 0x3d,
    0x9e, 0x9b, 0x49, 0x3d, 0xba, 0xa8, 0x10, 0xbd, 0xae, 0x7e,
    0x0c, 0xbd, 0xa9, 0x56, 0xaf, 0xbd, 0xa8, 0x79, 0x9d, 0xbd,
    0x23, 0xcb, 0xb0, 0x3c, 0x14, 0x97, 0x9e, 0x3d, 0xf0, 0xe8,
    0x84, 0x3d, 0x2e, 0x79, 0x86, 0x3c, 0x8e, 0x86, 0x57, 0xbd,
    0x48, 0x1c, 0xe0, 0xbd, 0xd9, 0xac, 0x04, 0xbc, 0xd8, 0xa1,
    0x37, 0x3d, 0xfc, 0xc4, 0xdc, 0x3d, 0x15, 0x9b, 0x51, 0x3d,
    0x10, 0x09, 0xab, 0x3d, 0x2f, 0xbe, 0x05, 0x3d, 0x06, 0x79,
    0x4f, 0x3d, 0x0d, 0x68, 0x04, 0x3d, 0xe3, 0xc0, 0x40, 0x3d,
    0x34, 0x18, 0x5f, 0x3b, 0xf4, 0x3a, 0x91, 0xbc, 0xa5, 0x94,
    0xb6, 0x3d, 0xa1, 0xfe, 0xad, 0x3d, 0xa9, 0xa5, 0xa8, 0x3d,
    0x1c, 0xe4, 0x12, 0x3d, 0x5f, 0x54, 0x57, 0x3c, 0xc6, 0xe0,
    0x63, 0x3b, 0xaf, 0xfe, 0xd4, 0x3d, 0xec, 0x1f, 0x88, 0x3d,
    0xe4, 0x44, 0x3e, 0xbc, 0xbc, 0xc4, 0x1b, 0x3d, 0x32, 0x70,
    0xbe, 0x3d, 0xef, 0x53, 0xaa, 0x3d, 0x14, 0x43, 0x06, 0x3d,
    0xf4, 0xb6, 0xa3, 0xbb, 0x09, 0x08, 0xe6, 0x3c, 0x26, 0x1f,
    0x2f, 0x3d, 0x50, 0xe4, 0x22, 0xbd, 0xe4, 0x72, 0x84, 0xbd,
    0x07, 0xd0, 0x27, 0x3b, 0x27, 0x01, 0x56, 0xbd, 0x68, 0x9d,
    0x1c, 0xbd, 0x47, 0x77, 0x00, 0xbe, 0xac, 0x30, 0x57, 0xbd,
    0x54, 0xf3, 0x96, 0xbc, 0xb1, 0x5d, 0x53, 0x3d, 0xf8, 0x23,
    0x3b, 0x3d, 0x6e, 0xa2, 0xac, 0xbd, 0xb2, 0x9f, 0x12, 0xbc,
    0xab, 0xd1, 0x2a, 0xbd, 0x9a, 0x4a, 0x75, 0x3d, 0x27, 0x19,
    0xb1, 0x3c, 0x18, 0x2c, 0xcd, 0x3b, 0xc9, 0x7a, 0x1e, 0x3d,
    0x3a, 0xf1, 0xe4, 0xbc, 0x4d, 0xc9, 0x0f, 0xbd, 0xc9, 0xdf,
    0xb3, 0x3c, 0x13, 0xe3, 0x05, 0x3d, 0xb8, 0x5b, 0xb9, 0xbc,
    0x1b, 0x4c, 0x42, 0xbd, 0x92, 0x41, 0x48, 0x3c, 0xc3, 0x43,
    0x6b, 0x3d, 0x2f, 0x01, 0x18, 0x3d, 0x02, 0xaf, 0x89, 0x3d,
    0xa0, 0x89, 0xec, 0x3c, 0x05, 0xdf, 0x3b, 0x3c, 0xa3, 0x42,
    0x09, 0x3d, 0x13, 0xcb, 0x83, 0x3c, 0xc1, 0xb6, 0xa3, 0xbc,
    0xbc, 0xab, 0x5c, 0x3c, 0xb8, 0xce, 0x86, 0xbd, 0x9a, 0x2d,
    0xbc, 0xbb, 0xfa, 0x19, 0x6f, 0xbd, 0x22, 0xb9, 0x57, 0x3c,
    0xdd, 0x4a, 0xf2, 0xbc, 0x28, 0x45, 0x21, 0x3d, 0xf1, 0xbb,
    0x1e, 0x3d, 0x5e, 0x8c, 0xa9, 0xbb, 0x8d, 0x0c, 0xe6, 0x3b,
    0x59, 0x51, 0xe2, 0x3c, 0x0f, 0xac, 0xc1, 0x3c, 0x32, 0xce,
    0x2a, 0xbd, 0xb8, 0x27, 0x85, 0xbd, 0x68, 0x17, 0x0b, 0x3d,
    0x12, 0xd5, 0x14, 0x3d, 0x76, 0x29, 0x92, 0xbb, 0x21, 0x35,
    0x91, 0xbd, 0x84, 0x9f, 0x08, 0x3d, 0xd1, 0x65, 0x50, 0x3d,
    0xd7, 0xfc, 0x93, 0x3d, 0xad, 0xe8, 0x92, 0xbc, 0xba, 0x8d,
    0x80, 0xbd, 0x06, 0x08, 0x8b, 0xbd, 0x63, 0x17, 0xa0, 0xbd,
    0x43, 0xed, 0x29, 0xbd, 0x84, 0xa2, 0x94, 0xbd, 0x40, 0x2e,
    0x9a, 0xbd, 0x40, 0x61, 0x5d, 0xbc, 0xda, 0x2b, 0x86, 0xbc,
    0x6d, 0x23, 0xbd, 0x3b, 0xc7, 0xdc, 0x83, 0xbd, 0xf5, 0x1d,
    0xa1, 0xbb, 0x16, 0x8a, 0x21, 0x3d, 0x19, 0x6d, 0x88, 0x3d,
    0x3b, 0xbb, 0x6e, 0xbd, 0x2c, 0x0f, 0x68, 0xbd, 0x6a, 0xdb,
    0xaa, 0x3c, 0x9d, 0xf0, 0x99, 0x3b, 0xb5, 0xa1, 0x35, 0xbc,
    0xb4, 0x0d, 0x2e, 0xbd, 0xf6, 0x57, 0x28, 0xbd, 0xb3, 0x1f,
    0xb4, 0x3c, 0x90, 0x71, 0x35, 0x3c, 0x52, 0x59, 0x12, 0xbe,
    0x41, 0xf7, 0x2d, 0xbd, 0x54, 0x01, 0x02, 0xbd, 0x00, 0xc8,
    0xe7, 0xbd, 0x90, 0x99, 0x02, 0xbd, 0x50, 0x7b, 0xf1, 0x3a,
    0x28, 0xfc, 0x4a, 0xbd, 0x76, 0x19, 0x06, 0xbc, 0x81, 0xd4,
    0xd8, 0xbb, 0x98, 0x56, 0xd3, 0xbd, 0x8c, 0xbb, 0x55, 0xbd,
    0xe7, 0x33, 0xe6, 0xbd, 0x55, 0xe5, 0xe6, 0xbd, 0x19, 0xbc,
    0xc8, 0xbd, 0xab, 0xd7, 0x8c, 0xbd, 0x68, 0xf6, 0xe8, 0x3b,
    0x77, 0xa1, 0x0c, 0xbd, 0x23, 0x10, 0xdb, 0xbc, 0xfc, 0xb5,
    0x26, 0xbd, 0x40, 0xf3, 0x62, 0xbd, 0xe7, 0x57, 0x6d, 0xbd,
    0xb7, 0x66, 0x6b, 0xbd, 0x4e, 0x5e, 0xdf, 0xbd, 0x46, 0x3d,
    0xbc, 0xbd, 0x5c, 0x02, 0x30, 0xbd, 0x3a, 0x59, 0x0e, 0xbd,
    0xd5, 0x05, 0xd2, 0x3a, 0x92, 0x7d, 0xbf, 0x3c, 0x21, 0x09,
    0x4f, 0x3d, 0xfe, 0x32, 0x80, 0xbd, 0x60, 0x4f, 0x90, 0xbd,
    0xcb, 0x1f, 0x02, 0xbd, 0x6f, 0xa0, 0x3f, 0xbd, 0x6c, 0x3e,
    0xda, 0xbd, 0x1c, 0xab, 0xd0, 0xbd, 0x32, 0xf0, 0xaf, 0xbd,
    0x68, 0xd7, 0x19, 0xbd, 0x97, 0xe9, 0x47, 0xbd, 0x98, 0xed,
    0x45, 0xbd, 0x32, 0xbf, 0xcd, 0xbd, 0xf9, 0x74, 0xcd, 0xbd,
    0x49, 0xfb, 0x19, 0x3c, 0xdb, 0x06, 0x47, 0x3d, 0x69, 0x93,
    0xbb, 0x3b, 0xd2, 0x04, 0x15, 0xbd, 0x1d, 0x44, 0x4e, 0xbd,
    0x17, 0x10, 0x02, 0xbe, 0x33, 0x22, 0x39, 0xbd, 0x84, 0x05,
    0x77, 0xbc, 0xcf, 0x48, 0x14, 0x3b, 0x82, 0x2d, 0xb4, 0xbc,
    0xc7, 0xf5, 0xb8, 0xbc, 0xaf, 0xc0, 0x87, 0xbc, 0x48, 0xe4,
    0x99, 0x3c, 0x48, 0x0b, 0x1f, 0xbc, 0x34, 0x9d, 0x8a, 0xbd,
    0x61, 0x86, 0x95, 0xbd, 0x78, 0xd4, 0x88, 0xbd, 0x46, 0xb8,
    0x60, 0xbd, 0x94, 0x7a, 0x03, 0xbe, 0x9c, 0x6d, 0x6c, 0xbd,
    0xba, 0xa6, 0x9d, 0xbd, 0x88, 0xb6, 0x06, 0xbc, 0x2f, 0x60,
    0xb4, 0xbd, 0xcb, 0xc1, 0x33, 0xbd, 0x3d, 0xd2, 0x91, 0xbb,
    0xf3, 0x5a, 0xc4, 0xbc, 0xac, 0xb1, 0x64, 0xbd, 0x10, 0xec,
    0x8b, 0xbd, 0xc5, 0x1e, 0xce, 0xbd, 0xcc, 0x88, 0x2b, 0xbe,
    0xb2, 0x34, 0xd6, 0xbd, 0x9d, 0xe1, 0xe8, 0xbc, 0x7b, 0x99,
    0x5b, 0x3d, 0x9c, 0xbb, 0xc2, 0x3c, 0x82, 0xaf, 0x62, 0xbd,
    0x72, 0x22, 0x85, 0xbd, 0xe5, 0xf1, 0x42, 0xbd, 0x5e, 0x38,
    0xb6, 0xbd, 0x99, 0x9e, 0x84, 0xbd, 0xc1, 0x3a, 0x13, 0xbd,
    0x22, 0xee, 0x65, 0x3d, 0x62, 0x1a, 0xae, 0xbd, 0x12, 0x94,
    0xed, 0xbc, 0xc2, 0x5a, 0x3b, 0xbd, 0x00, 0xc7, 0xad, 0x3c,
    0x0c, 0xbb, 0x46, 0x3c, 0x07, 0x27, 0x32, 0xbd, 0xa6, 0xf7,
    0xd1, 0xbd, 0xde, 0x08, 0xc8, 0xbd, 0xc3, 0x74, 0x1c, 0xbe,
    0xe5, 0x78, 0x7b, 0xbd, 0xbe, 0x67, 0xd5, 0xbd, 0xbd, 0xc0,
    0xa3, 0xbd, 0x67, 0x6a, 0xb0, 0xbd, 0xb5, 0x5d, 0xad, 0xbd,
    0x26, 0x6f, 0x47, 0x3c, 0x6e, 0x73, 0x62, 0xbd, 0x49, 0x82,
    0xed, 0xbc, 0x05, 0xb5, 0x66, 0xba, 0x51, 0x70, 0xa8, 0xbd,
    0xaa, 0x87, 0xaa, 0xbd, 0x4b, 0x57, 0x26, 0xbe, 0x09, 0x64,
    0xbb, 0xbc, 0xb1, 0x17, 0xc7, 0xbc, 0x13, 0xed, 0x09, 0xbb,
    0xeb, 0x76, 0x4f, 0xbd, 0x52, 0x6c, 0x35, 0xbe, 0x26, 0xce,
    0xc4, 0xbd, 0x3e, 0x34, 0xd1, 0xbd, 0x6c, 0x80, 0x0f, 0xbe,
    0xbe, 0x25, 0x69, 0x3c, 0x40, 0xe4, 0x00, 0x3d, 0x60, 0xe0,
    0x0c, 0xbd, 0xaf, 0xc4, 0x87, 0xbd, 0x1a, 0x1d, 0xdc, 0xbc,
    0x37, 0x0f, 0xf9, 0x3c, 0xdd, 0xae, 0x8f, 0xbd, 0x5d, 0x80,
    0x2d, 0xbe, 0x58, 0x55, 0xb9, 0xbd, 0x90, 0x93, 0x32, 0xbd,
    0x56, 0x94, 0xae, 0xbc, 0x5c, 0x66, 0xe0, 0xbc, 0xb3, 0xb6,
    0xd7, 0xbc, 0x6f, 0x12, 0x1b, 0x3e, 0xac, 0x22, 0x2d, 0x3c,
    0xa9, 0x2e, 0x04, 0xbd, 0xe5, 0x34, 0x9d, 0xbc, 0xa1, 0x5a,
    0x9f, 0xbd, 0xd5, 0x70, 0xcc, 0x3d, 0x9c, 0xb5, 0xc7, 0x3d,
    0x6a, 0xf8, 0x70, 0xbd, 0x10, 0xa6, 0x2a, 0xbe, 0xfa, 0x87,
    0x8c, 0x3d, 0xb5, 0xaf, 0xb6, 0x3d, 0xfa, 0xa6, 0xb8, 0x3d,
    0x98, 0xa5, 0xbd, 0x3d, 0x98, 0xb1, 0x92, 0xbd, 0x03, 0xf4,
    0xb7, 0xbb, 0x46, 0xd5, 0xdf, 0xbc, 0x5e, 0x0c, 0xcc, 0xbc,
    0xc8, 0xf6, 0xe0, 0xbc, 0x58, 0x19, 0xd0, 0x3d, 0x2a, 0xc6,
    0x4c, 0x3e, 0x41, 0xdb, 0xc8, 0xbd, 0x08, 0x51, 0xc7, 0xbc,
    0x3d, 0xe8, 0x98, 0xbd, 0x87, 0x33, 0x9b, 0xbc, 0x32, 0xf9,
    0x4d, 0x3c, 0xae, 0x17, 0x73, 0x3b, 0x2f, 0x71, 0x80, 0xbd,
    0x96, 0xd5, 0x60, 0x3d, 0xc2, 0x2a, 0x07, 0x3d, 0x19, 0x79,
    0x3d, 0xbd, 0x45, 0x52, 0xd3, 0xbd, 0x7f, 0x79, 0x43, 0xbe,
    0x7c, 0x2b, 0xcb, 0xbd, 0x37, 0x53, 0x3e, 0xbe, 0xe1, 0xff,
    0x21, 0xbe, 0xf4, 0xd7, 0xb2, 0xbc, 0x46, 0x3d, 0xaa, 0xbd,
    0xcd, 0xe3, 0x5e, 0xbe, 0xee, 0xda, 0x06, 0xbe, 0xbe, 0xc7,
    0x8b, 0xbd, 0x4b, 0x75, 0x9b, 0xbd, 0x90, 0x43, 0x0f, 0xbd,
    0x49, 0x24, 0xbd, 0xbd, 0xac, 0x32, 0xda, 0xbd, 0x85, 0x49,
    0x69, 0x3d, 0x60, 0x36, 0xc2, 0x3d, 0x02, 0x78, 0xb3, 0x3c,
    0x30, 0x3e, 0xb2, 0xbd, 0x88, 0x97, 0x0b, 0xbe, 0x8e, 0x35,
    0x03, 0xbe, 0x95, 0x9f, 0x03, 0x3e, 0x6b, 0x6e, 0x5a, 0xbc,
    0x05, 0xc0, 0x5e, 0x3c, 0x99, 0xec, 0xb4, 0xbd, 0x56, 0x79,
    0xa1, 0xba, 0x32, 0x92, 0xcb, 0xbd, 0x97, 0xd4, 0x84, 0xbd,
    0xfb, 0x22, 0xba, 0x3d, 0x93, 0x85, 0x53, 0xbe, 0x31, 0x86,
    0x01, 0xbe, 0x1c, 0x15, 0x89, 0xbd, 0x86, 0x36, 0x80, 0xbd,
    0x23, 0xd2, 0x08, 0xbe, 0xd5, 0x43, 0x9d, 0xbd, 0x42, 0x83,
    0x9f, 0xbd, 0x67, 0xd7, 0x58, 0xbe, 0xaf, 0x1b, 0x4c, 0xbd,
    0xbc, 0x0a, 0xc7, 0x3d, 0x55, 0x32, 0xa6, 0xbd, 0x58, 0x06,
    0x77, 0xbd, 0xb9, 0x15, 0x67, 0xbd, 0x24, 0x4c, 0xf5, 0xbd,
    0x9c, 0x57, 0x3a, 0xbe, 0x4a, 0x03, 0x60, 0xbe, 0x40, 0x13,
    0x90, 0xbd, 0x65, 0xc2, 0x2f, 0xbe, 0x80, 0x90, 0x97, 0xbd,
    0xdd, 0x4d, 0xe6, 0x3d, 0xad, 0xf9, 0x80, 0xbd, 0x97, 0x09,
    0x35, 0xbe, 0x3e, 0xd9, 0xb6, 0xbd, 0xec, 0x5a, 0x1f, 0xbe,
    0x4b, 0x21, 0x4d, 0xbe, 0xab, 0xa4, 0x35, 0x3d, 0x6a, 0x92,
    0x4a, 0xbd, 0xba, 0xd4, 0xa2, 0xbc, 0x29, 0xdd, 0xad, 0x3d,
    0x63, 0xf7, 0x34, 0xbd, 0x40, 0x34, 0x03, 0xbe, 0x67, 0xe8,
    0x24, 0xbe, 0x0c, 0xc4, 0x36, 0xbe, 0xa4, 0xb0, 0x1f, 0xbe,
    0x73, 0x82, 0x6c, 0xbd, 0x46, 0x25, 0xaa, 0xbd, 0x45, 0x2b,
    0x86, 0xbd, 0x6e, 0x03, 0xc4, 0x3c, 0xd3, 0xd4, 0xcf, 0xbd,
    0x86, 0xed, 0xe6, 0xbd, 0xd2, 0x9b, 0x9f, 0x3d, 0xb7, 0xd3,
    0x2f, 0xbd, 0x39, 0xe6, 0x40, 0xbe, 0x78, 0x20, 0xb7, 0xbd,
    0xfc, 0x94, 0xcf, 0xbd, 0xc0, 0x95, 0x17, 0xbd, 0x63, 0xde,
    0x14, 0xbd, 0x43, 0x07, 0x05, 0xbe, 0x13, 0xb3, 0xdc, 0xbd,
    0x99, 0x5a, 0x3f, 0xbd, 0x88, 0x8d, 0x4b, 0xbe, 0x74, 0xb6,
    0x7d, 0xbe, 0x59, 0x02, 0xed, 0xbd, 0x56, 0xaf, 0x35, 0xbb,
    0x52, 0x44, 0xf0, 0x3c, 0x68, 0xb4, 0x06, 0xbe, 0xf4, 0xfa,
    0xcb, 0xbd, 0x63, 0xa6, 0x06, 0x3b, 0x76, 0xad, 0x1e, 0xbe,
    0xf4, 0xa5, 0x84, 0xbc, 0xf7, 0x81, 0x73, 0x3d, 0xc5, 0xad,
    0x81, 0xbd, 0x84, 0x13, 0x5b, 0x3d, 0x08, 0x8c, 0x36, 0x3d,
    0x41, 0xfa, 0x6f, 0xbe, 0x42, 0x20, 0x76, 0xbe, 0x35, 0x9e,
    0x15, 0xbe, 0xcd, 0x3e, 0xed, 0xbc, 0x2e, 0xdc, 0x67, 0x3d,
    0x91, 0xbc, 0xc3, 0xbd, 0x0c, 0x00, 0xfd, 0xbd, 0x2a, 0xa2,
    0x7a, 0xbc, 0x28, 0x10, 0xcc, 0x3c, 0xa8, 0xff, 0x6e, 0x3d,
    0x91, 0xca, 0xc1, 0xbc, 0x3e, 0x30, 0xac, 0xbc, 0xa4, 0x6e,
    0x8d, 0xbd, 0xc6, 0x7b, 0xed, 0xbd, 0x79, 0x76, 0xf3, 0xbd,
    0x79, 0x85, 0xec, 0xbd, 0x44, 0x39, 0xa6, 0xbc, 0xea, 0x76,
    0xbd, 0x3d, 0x7a, 0xde, 0x29, 0x3e, 0x74, 0x0a, 0x3b, 0xbd,
    0x38, 0x6a, 0x74, 0xbd, 0x0e, 0x37, 0xfa, 0x3d, 0xe3, 0x88,
    0xad, 0x3c, 0x75, 0x62, 0x70, 0xbd, 0xef, 0xd8, 0xfe, 0xbd,
    0x81, 0x72, 0x88, 0x3d, 0xa3, 0x09, 0x2e, 0x3d, 0xca, 0x0b,
    0x46, 0x3c, 0x59, 0xc0, 0xcf, 0xbd, 0x59, 0x0e, 0x1a, 0xbe,
    0x4b, 0x18, 0x5f, 0xbe, 0xef, 0x10, 0xa2, 0xbd, 0x1e, 0x5d,
    0x6c, 0xbd, 0xfd, 0x55, 0x05, 0x3d, 0xe5, 0x1e, 0x8d, 0xbd,
    0x53, 0x76, 0xf8, 0xbd, 0x5f, 0x6c, 0x97, 0x3c, 0x9b, 0xee,
    0x64, 0xbd, 0x71, 0x24, 0x03, 0xbd, 0x3f, 0x72, 0x50, 0xbd,
    0x7d, 0xe8, 0x95, 0x3c, 0x40, 0xe9, 0x6c, 0x3c, 0xbc, 0xe7,
    0x15, 0xbc, 0x69, 0x77, 0x01, 0x3d, 0x7d, 0x27, 0x50, 0xbd,
    0x90, 0x6a, 0xde, 0xba, 0xdd, 0x61, 0x7e, 0xbc, 0x92, 0xcc,
    0xbf, 0x3a, 0x5d, 0x7e, 0x2d, 0x3b, 0xbe, 0x6c, 0x3f, 0xbd,
    0x1c, 0xc4, 0x02, 0xbc, 0xf7, 0x66, 0xac, 0x3c, 0x93, 0xca,
    0xb3, 0xbc, 0x0c, 0xb0, 0x3b, 0xbc, 0x87, 0x63, 0xe2, 0xbc,
    0xd4, 0x0b, 0x8a, 0xbc, 0x5e, 0xe9, 0x14, 0xbd, 0x49, 0xb8,
    0x9a, 0x3c, 0xfc, 0xe6, 0x48, 0xbc, 0x44, 0x9a, 0xe1, 0x3c,
    0x84, 0x97, 0x34, 0x3c, 0x89, 0x62, 0x5f, 0xbd, 0xca, 0x76,
    0xd6, 0x3c, 0x2f, 0x74, 0x03, 0xbd, 0x9b, 0x3e, 0x31, 0xbd,
    0x34, 0x52, 0xaf, 0xbc, 0x74, 0x16, 0xac, 0x3c, 0x7c, 0x17,
    0x25, 0x3b, 0xe5, 0xa5, 0x08, 0x3d, 0x9c, 0x0f, 0xdf, 0x3a,
    0xd1, 0x5d, 0xf0, 0xbc, 0x9d, 0x54, 0xb0, 0x3c, 0x89, 0x2a,
    0xe6, 0xbc, 0xc8, 0x1e, 0xa2, 0x3a, 0x31, 0x52, 0xa9, 0xbc,
    0x20, 0xf2, 0x57, 0xbd, 0x69, 0x39, 0x3c, 0xbd, 0x21, 0xaa,
    0x43, 0xbd, 0xaa, 0x8c, 0x23, 0x3b, 0x3c, 0x72, 0x28, 0x3c,
    0x14, 0xb1, 0x2b, 0x3d, 0xd6, 0x56, 0xde, 0xbc, 0x60, 0xaf,
    0xde, 0xbc, 0xc3, 0xbb, 0x85, 0xbc, 0x55, 0x31, 0xc3, 0xbc,
    0x7f, 0x49, 0x01, 0xbd, 0x5e, 0x86, 0x0e, 0x3b, 0xca, 0x8e,
    0x8f, 0x3c, 0xfc, 0x04, 0xc3, 0xbb, 0xd2, 0x5b, 0x69, 0xbd,
    0x38, 0x8b, 0x3f, 0xbd, 0xb5, 0xb5, 0x19, 0x3d, 0x70, 0x4e,
    0x45, 0xbd, 0xb1, 0x8d, 0x9a, 0x3c, 0xb8, 0x11, 0xda, 0x38,
    0x6f, 0xf1, 0x19, 0x3c, 0x73, 0xbd, 0xd4, 0x3c, 0x34, 0xc7,
    0xb1, 0x3b, 0x9f, 0xca, 0x3e, 0xbd, 0x58, 0xfa, 0xa2, 0x3c,
    0xce, 0x79, 0x59, 0xbd, 0xec, 0x55, 0xd0, 0x3c, 0xf2, 0xe3,
    0x26, 0xb9, 0xdc, 0xb9, 0x1e, 0xbc, 0x43, 0xfb, 0xee, 0xbb,
    0xb4, 0x74, 0xc5, 0x3c, 0x5b, 0x5b, 0x52, 0xbc, 0x36, 0xbe,
    0x22, 0x3d, 0xaf, 0xab, 0x63, 0x3c, 0xca, 0x4b, 0x22, 0x3d,
    0x3c, 0xb3, 0x23, 0x3d, 0x62, 0x34, 0x00, 0xbb, 0x84, 0xfb,
    0xc4, 0x3c, 0xf4, 0x67, 0x62, 0xbd, 0x18, 0x5b, 0x12, 0x3d,
    0x36, 0xe2, 0x72, 0x3c, 0x96, 0x23, 0xf6, 0x3c, 0x73, 0xd7,
    0x2a, 0xbd, 0x9e, 0xfb, 0x89, 0x3c, 0x1d, 0xde, 0xad, 0xbc,
    0x3e, 0xf8, 0x46, 0xbd, 0xb7, 0x12, 0x5b, 0x3c, 0xc1, 0xda,
    0x23, 0xbc, 0x6f, 0x34, 0xc3, 0x3a, 0x3b, 0xba, 0xa2, 0xbc,
    0xd6, 0x6c, 0xac, 0x3b, 0xc6, 0xd1, 0x98, 0x3c, 0xe2, 0x05,
    0x5b, 0xbd, 0xee, 0xbd, 0x53, 0xbd, 0x7d, 0x10, 0x1e, 0x3d,
    0xfa, 0x1a, 0xc2, 0x3c, 0x74, 0x35, 0x41, 0xbd, 0xdb, 0x61,
    0x96, 0xbb, 0xe5, 0xc0, 0x26, 0xbd, 0x43, 0x4c, 0x28, 0xbc,
    0xdd, 0xa3, 0xd6, 0xbc, 0xad, 0x0d, 0x4b, 0xbd, 0x35, 0x47,
    0x86, 0xbc, 0x72, 0x14, 0xf8, 0xbb, 0x67, 0xa6, 0x51, 0xbd,
    0x7b, 0x39, 0x56, 0xbd, 0x7e, 0x6f, 0x1e, 0x3d, 0xd9, 0xbd,
    0x4e, 0xbd, 0xe8, 0xdf, 0xae, 0xbc, 0x61, 0xfb, 0x01, 0xbd,
    0xd2, 0x47, 0x23, 0x3b, 0x72, 0x62, 0x48, 0xbd, 0xb3, 0x5a,
    0x43, 0xbd, 0xbd, 0xcd, 0xde, 0x3c, 0x93, 0x77, 0x69, 0x3c,
    0xdc, 0x20, 0x67, 0xbd, 0x68, 0xba, 0x52, 0xbc, 0x44, 0x4d,
    0x28, 0xbd, 0x6e, 0x82, 0x55, 0xbc, 0xa6, 0x35, 0xa9, 0xbc,
    0xdd, 0xb5, 0x31, 0x3c, 0x4e, 0xcb, 0x8c, 0xbc, 0xd3, 0x10,
    0xaa, 0x3c, 0xcc, 0x5d, 0xf9, 0xb9, 0xc9, 0x11, 0x39, 0x3c,
    0x98, 0xf9, 0xb8, 0xbc, 0x23, 0x6f, 0xe9, 0xbc, 0xb4, 0x01,
    0xd0, 0x3c, 0x27, 0x11, 0x58, 0xbd, 0x79, 0x28, 0xa0, 0xbc,
    0x92, 0xdc, 0xc6, 0xbb, 0x3f, 0x4f, 0x63, 0xbd, 0x24, 0x9e,
    0x2a, 0x3c, 0x26, 0x74, 0x16, 0xbd, 0x0e, 0x6b, 0xca, 0xbb,
    0x70, 0x56, 0x16, 0xbc, 0x54, 0xb4, 0x04, 0x3d, 0xe0, 0x5d,
    0xc3, 0x3c, 0xe6, 0x64, 0x56, 0xbc, 0x9e, 0xec, 0xd0, 0xbc,
    0xcf, 0x4f, 0x42, 0x3b, 0x47, 0x12, 0xc1, 0x3c, 0x27, 0x2f,
    0xcd, 0x3b, 0xd5, 0x23, 0x45, 0x3c, 0x0e, 0x39, 0x85, 0xba,
    0x5d, 0xc2, 0x9f, 0x3c, 0x54, 0xc8, 0x20, 0xbd, 0x16, 0xf2,
    0x50, 0xbd, 0x69, 0x1a, 0xe8, 0xbc, 0xdb, 0xf9, 0x3d, 0xbd,
    0x4b, 0xd4, 0xf6, 0x3b, 0xab, 0x29, 0x7a, 0xbc, 0x5c, 0x2e,
    0x46, 0xbd, 0x12, 0x5c, 0xd7, 0xbc, 0xee, 0x22, 0x0a, 0x3d,
    0xcc, 0x5b, 0xfd, 0x3c, 0x86, 0x43, 0x29, 0xbd, 0x3f, 0xf4,
    0xe6, 0xbc, 0x71, 0x09, 0x43, 0xbd, 0xb8, 0xd9, 0xc2, 0xbc,
    0x54, 0x38, 0x52, 0xbc, 0x3c, 0x7f, 0x02, 0x3d, 0xe8, 0x94,
    0xf1, 0xbc, 0x45, 0xc9, 0x07, 0xbd, 0xb1, 0xcc, 0x60, 0xbd,
    0x61, 0x34, 0x03, 0x3d, 0x18, 0x13, 0x23, 0xbd, 0x52, 0x65,
    0xb1, 0x3c, 0x24, 0xd1, 0x12, 0x3d, 0x88, 0xe6, 0x84, 0x3c,
    0xa2, 0xa3, 0x18, 0x3c, 0x37, 0x78, 0x1f, 0xbc, 0x14, 0x9b,
    0xde, 0xbc, 0x7e, 0x52, 0x87, 0x3c, 0xa8, 0x8d, 0x5a, 0xbd,
    0x2d, 0x62, 0x53, 0xbd, 0xa7, 0x4b, 0xe2, 0xbb, 0xef, 0xc5,
    0x6b, 0xbd, 0x76, 0xcb, 0xed, 0x3c, 0x83, 0xfb, 0x3f, 0xba,
    0x51, 0xf7, 0x18, 0xbb, 0xb2, 0x76, 0x1c, 0x3d, 0x51, 0xef,
    0xac, 0x3b, 0xee, 0xe9, 0x8b, 0x3c, 0x14, 0x59, 0x3b, 0xbd,
    0xca, 0x30, 0x63, 0xbd, 0xf4, 0x64, 0x1e, 0x3d, 0x7c, 0x88,
    0x81, 0xbc, 0x49, 0x84, 0x1a, 0x3d, 0xa6, 0xa3, 0x0a, 0xbd,
    0x5c, 0x75, 0xb7, 0xbc, 0x82, 0xad, 0x16, 0xbd, 0x98, 0x70,
    0x62, 0xbd, 0xe7, 0xd5, 0xf5, 0x3c, 0x94, 0x15, 0xc6, 0x3b,
    0x1c, 0xb3, 0x0d, 0xbc, 0x31, 0xe4, 0x21, 0x3d, 0xfd, 0x87,
    0x23, 0x3d, 0x0e, 0xe1, 0x56, 0xbd, 0x9b, 0x33, 0x14, 0x3d,
    0x3f, 0xd1, 0x2d, 0xbd, 0x5e, 0xa7, 0x1a, 0xbd, 0x68, 0x97,
    0xf9, 0xbb, 0x09, 0x77, 0x68, 0xbd, 0x18, 0x4f, 0xa6, 0xbc,
    0x9a, 0x5e, 0x88, 0x3b, 0x7a, 0x9c, 0xdf, 0x3c, 0xd1, 0xa7,
    0x9a, 0xbc, 0x11, 0x07, 0x19, 0x3d, 0x8e, 0x07, 0x85, 0xbc,
    0x4a, 0xfd, 0xbe, 0xbc, 0x0e, 0x20, 0x62, 0x3c, 0xf1, 0x9c,
    0xd3, 0x3c, 0x08, 0x9e, 0x17, 0x3d, 0xcb, 0x3f, 0x3c, 0x3c,
    0xb6, 0x5e, 0x0a, 0x3c, 0x94, 0xa2, 0x16, 0xbd, 0x4c, 0x4f,
    0x3d, 0xbd, 0x32, 0x73, 0x08, 0x3d, 0x15, 0xda, 0xee, 0xbb,
    0x66, 0x71, 0x97, 0xbc, 0x66, 0xd4, 0xa8, 0x3c, 0xcc, 0x87,
    0xb6, 0x3c, 0xb9, 0xbd, 0x65, 0xbd, 0x7d, 0x6d, 0xbf, 0x3a,
    0x64, 0x96, 0x2a, 0xbd, 0xe0, 0x0f, 0x19, 0x3d, 0x84, 0xea,
    0x17, 0xbd, 0x64, 0xeb, 0x94, 0xbc, 0x6c, 0x25, 0xcd, 0xbc,
    0x10, 0x63, 0x1e, 0x3d, 0x3f, 0x6b, 0x43, 0xbd, 0x80, 0x65,
    0x8d, 0x3c, 0xba, 0x5b, 0x8b, 0xbc, 0x94, 0x12, 0xba, 0xbc,
    0x7b, 0x95, 0x1f, 0x3d, 0xb6, 0x97, 0x21, 0xbd, 0x86, 0x7f,
    0xb8, 0x3c, 0x74, 0x28, 0x0f, 0x3d, 0x2e, 0x31, 0x81, 0x3b,
    0x9d, 0xb0, 0x38, 0x3c, 0xcc, 0x1e, 0xa4, 0x3c, 0x72, 0x15,
    0x1a, 0xbd, 0x7f, 0x5a, 0x5c, 0xbd, 0x15, 0xb9, 0x2d, 0xbd,
    0xee, 0x2b, 0x11, 0x3b, 0x10, 0xb0, 0x4a, 0x3c, 0x72, 0xd1,
    0x38, 0xbd, 0x8b, 0x6d, 0xde, 0x3b, 0x07, 0x78, 0x1f, 0xbc,
    0x52, 0x41, 0x3e, 0xbd, 0xea, 0x36, 0x16, 0xbd, 0x95, 0x18,
    0x30, 0xbd, 0x68, 0x17, 0x53, 0x3c, 0x7b, 0xcc, 0x30, 0x3c,
    0x37, 0xa4, 0x12, 0xbd, 0xac, 0xad, 0x01, 0xbd, 0x33, 0x3d,
    0x00, 0x3c, 0x64, 0x9a, 0x37, 0xbd, 0xbd, 0x0c, 0xa7, 0xbc,
    0xcb, 0xe3, 0x96, 0xbc, 0xcc, 0xe8, 0xf3, 0x3c, 0x57, 0x9f,
    0x0c, 0x39, 0xaa, 0x6a, 0x0c, 0x3b, 0xc7, 0x36, 0x2b, 0xbd,
    0xe7, 0x92, 0x18, 0xbd, 0x2c, 0x60, 0xc9, 0xbc, 0xcc, 0x33,
    0x0f, 0xbd, 0x10, 0xaf, 0x93, 0xbc, 0x01, 0x43, 0x38, 0xbd,
    0x25, 0xd1, 0xd5, 0xbc, 0x3b, 0x0d, 0x67, 0xbd, 0x45, 0x02,
    0x80, 0x3c, 0xda, 0xea, 0xdf, 0x3c, 0xa1, 0x80, 0x93, 0xbc,
    0x79, 0xbf, 0xaf, 0xbc, 0x25, 0xd4, 0x7c, 0x39, 0xb5, 0x32,
    0x00, 0xbd, 0x49, 0x72, 0x3e, 0xbd, 0x86, 0xb7, 0x97, 0x39,
    0x43, 0xc2, 0x2d, 0x3c, 0x79, 0x25, 0xc9, 0xbc, 0xa2, 0x85,
    0x1d, 0x3c, 0x21, 0x79, 0x3e, 0x3b, 0x6b, 0x37, 0x5c, 0xbd,
    0x3b, 0xeb, 0x5a, 0x3c, 0x0a, 0x53, 0x8d, 0x3c, 0x74, 0x92,
    0xad, 0x3c, 0xf3, 0x6e, 0x83, 0xbb, 0x71, 0x4f, 0x0f, 0xbd,
    0xa2, 0x01, 0xd8, 0xbc, 0x5d, 0x92, 0x13, 0xbb, 0x73, 0x52,
    0x0e, 0xbd, 0xec, 0xc0, 0x47, 0xbd, 0x2f, 0xe8, 0x28, 0x3d,
    0x7c, 0x2b, 0xef, 0x3c, 0xad, 0xf2, 0x08, 0xbc, 0xb5, 0xfa,
    0xc5, 0xbc, 0x27, 0x2f, 0x27, 0x3d, 0x3a, 0x1b, 0xde, 0xbc,
    0xa3, 0x50, 0xf2, 0x3c, 0x91, 0xf0, 0x83, 0x3c, 0x23, 0xe4,
    0x24, 0xbc, 0x33, 0xa0, 0xe7, 0x3c, 0xbf, 0x4d, 0x62, 0xbd,
    0x14, 0xb2, 0x67, 0xbd, 0x2a, 0x8d, 0x4d, 0xbd, 0x5e, 0x67,
    0x14, 0x3d, 0x59, 0x60, 0x37, 0xbd, 0x4b, 0xd1, 0x0a, 0x3d,
    0x36, 0x9a, 0x03, 0x3d, 0x1a, 0xaa, 0x83, 0x3b, 0x69, 0x7b,
    0xc5, 0xbc, 0xc8, 0xef, 0xf7, 0x3c, 0xd5, 0xee, 0xfb, 0xbc,
    0x7a, 0xad, 0x0e, 0x3c, 0xdf, 0xfc, 0x32, 0x3c, 0x0b, 0x90,
    0x66, 0xbd, 0x05, 0x3f, 0x0b, 0xbd, 0x49, 0xbe, 0x6d, 0xbd,
    0x63, 0x57, 0x70, 0xbb, 0x06, 0x3e, 0xed, 0x3c, 0x4e, 0xab,
    0x1c, 0x3d, 0xbf, 0xfb, 0x43, 0x3a, 0x60, 0x0d, 0xb5, 0x39,
    0xa0, 0x52, 0xe2, 0xbb, 0x8f, 0x11, 0x07, 0xbd, 0xcf, 0x84,
    0x4a, 0xbc, 0x30, 0xe1, 0xbe, 0x3b, 0xca, 0x3e, 0xeb, 0xbc,
    0xa1, 0xb1, 0x61, 0xbd, 0x21, 0x3b, 0xc3, 0x3c, 0x28, 0x39,
    0xfe, 0xbc, 0x30, 0x9a, 0x37, 0xbd, 0x1e, 0xa1, 0x99, 0xbc,
    0x8d, 0xf3, 0xe1, 0xbc, 0x98, 0xfb, 0x0b, 0xbc, 0x13, 0x29,
    0x40, 0x3c, 0x8e, 0xe8, 0xac, 0xbc, 0x47, 0x04, 0x4a, 0xbd,
    0x6e, 0xf5, 0x62, 0xbd, 0x87, 0x81, 0xe1, 0xbc, 0xcb, 0xfc,
    0x89, 0xbb, 0x4d, 0x62, 0x8f, 0x3c, 0x72, 0x79, 0x4d, 0xbd,
    0xef, 0x9f, 0x9f, 0x3c, 0x7c, 0x20, 0xe4, 0x3b, 0x39, 0x2c,
    0xa3, 0x38, 0x1c, 0xe7, 0x5a, 0x3c, 0xab, 0x6f, 0x01, 0xbd,
    0x28, 0x5e, 0x6a, 0xbd, 0xb5, 0x15, 0xa1, 0xba, 0xe5, 0x69,
    0xe4, 0xbb, 0xb9, 0x73, 0xde, 0xbc, 0x88, 0x8b, 0xe5, 0x3c,
    0xb8, 0xbf, 0x21, 0xbd, 0x74, 0xb3, 0x08, 0xbd, 0x1b, 0x86,
    0xb7, 0xbc, 0xfb, 0x68, 0x43, 0xbd, 0x62, 0x2d, 0x15, 0xbd,
    0x89, 0xf9, 0xda, 0xbc, 0x02, 0x43, 0x5c, 0xbd, 0x0a, 0xba,
    0xd6, 0xbc, 0x85, 0x95, 0x0d, 0xbd, 0x29, 0xad, 0x92, 0xba,
    0x09, 0x33, 0x1d, 0xbd, 0xcb, 0x75, 0x3d, 0xbd, 0x13, 0xc9,
    0x3d, 0x3c, 0x44, 0xb9, 0xe1, 0xbc, 0x61, 0x06, 0x0f, 0xbd,
    0x51, 0x43, 0xe1, 0xbc, 0x55, 0x96, 0x87, 0x3b, 0xa8, 0xcb,
    0x22, 0xbd, 0x21, 0x12, 0x9f, 0x3a, 0x2a, 0x9e, 0xfd, 0x3b,
    0xf2, 0x79, 0x32, 0xbd, 0x9f, 0x9f, 0x5c, 0x3c, 0xef, 0xda,
    0x26, 0xbd, 0x3a, 0x55, 0x85, 0xbb, 0xd9, 0xea, 0x13, 0xbd,
    0xc3, 0x37, 0xa1, 0x3b, 0x8a, 0x76, 0x22, 0xbd, 0x79, 0x73,
    0xcb, 0x3c, 0xe8, 0x16, 0x69, 0xbd, 0x72, 0x1f, 0xdc, 0x3b,
    0xa1, 0x67, 0x98, 0xbb, 0x60, 0x5e, 0x18, 0xbd, 0x3c, 0xdd,
    0x16, 0x3d, 0x15, 0x3e, 0xeb, 0xbb, 0xb1, 0x1d, 0x0d, 0xbd,
    0x33, 0x2c, 0x08, 0x3d, 0xad, 0xdd, 0x7e, 0x3b, 0x36, 0x8c,
    0x40, 0xbd, 0x2e, 0xc4, 0x4a, 0xbd, 0xce, 0x86, 0x47, 0xbc,
    0x21, 0x40, 0x2f, 0xbd, 0x23, 0xaa, 0x52, 0x3c, 0xe3, 0x69,
    0xdb, 0x3c, 0x0a, 0xbe, 0x28, 0x3d, 0xae, 0x6d, 0x66, 0xbd,
    0xf7, 0x91, 0x21, 0xbc, 0x93, 0xdd, 0x1f, 0xbd, 0x11, 0x69,
    0xcb, 0xbc, 0x0b, 0x45, 0x6f, 0xbc, 0x0d, 0x6c, 0x15, 0xbd,
    0xa2, 0x3c, 0xe4, 0x3b, 0xe2, 0xc2, 0x8d, 0x3b, 0xb6, 0x84,
    0xf2, 0xbb, 0x16, 0x8f, 0xa8, 0x3b, 0x79, 0xf5, 0x9e, 0xbc,
    0x76, 0x64, 0x02, 0x3c, 0x7d, 0xbd, 0x4f, 0xbc, 0x09, 0x2e,
    0x8f, 0xbc, 0xfa, 0xdd, 0x19, 0xbd, 0x82, 0xa8, 0xf3, 0x3b,
    0xd9, 0xbf, 0x97, 0xbc, 0x5e, 0x7f, 0x5c, 0xbd, 0x6a, 0x36,
    0x83, 0x3c, 0xc6, 0x02, 0x63, 0xbd, 0xf9, 0xcb, 0xc7, 0xba,
    0x4f, 0x52, 0x0f, 0x3d, 0x56, 0xc5, 0x18, 0x3d, 0x46, 0xf1,
    0x16, 0x3d, 0xfb, 0x40, 0x35, 0xbd, 0x53, 0xb7, 0xa2, 0x3b,
    0x9b, 0xff, 0x00, 0x3d, 0x44, 0xfc, 0x89, 0xbc, 0x28, 0x43,
    0x97, 0x3c, 0x87, 0x13, 0x01, 0x3d, 0x3b, 0xf0, 0xf9, 0x3c,
    0xa1, 0x6e, 0xdd, 0x3c, 0xd4, 0x10, 0xa3, 0x3b, 0xe3, 0xb2,
    0x29, 0xbd, 0xa7, 0x03, 0x3c, 0xbd, 0x7f, 0x5b, 0x4e, 0x3c,
    0x2e, 0x11, 0xf9, 0x3b, 0xbe, 0xba, 0xff, 0xbc, 0x18, 0x6c,
    0x78, 0x3c, 0xe2, 0xb0, 0x02, 0x3c, 0x0b, 0x32, 0x68, 0xbc,
    0x49, 0xd9, 0x13, 0xbd, 0xf0, 0xe9, 0xad, 0xbc, 0x4e, 0x7d,
    0x04, 0xbc, 0x61, 0x59, 0xfd, 0xbc, 0x46, 0x37, 0x4f, 0xbd,
    0xc6, 0x40, 0x98, 0x3c, 0xba, 0x4b, 0xef, 0x3c, 0x6f, 0xe6,
    0xf5, 0x3c, 0xaa, 0x0c, 0x11, 0x3c, 0x3c, 0x94, 0x18, 0x3c,
    0xbf, 0xa7, 0x03, 0x3d, 0xb8, 0xfe, 0xf4, 0x3b, 0x0f, 0x8b,
    0x03, 0xbd, 0x51, 0xe0, 0x4e, 0xbc, 0x06, 0x03, 0xb6, 0x3c,
    0x50, 0xc0, 0xea, 0x3c, 0x70, 0x69, 0x39, 0xbd, 0x6d, 0x69,
    0x0d, 0x3d, 0x0a, 0xc9, 0xf1, 0x3c, 0x09, 0x08, 0x8a, 0x3c,
    0x45, 0xa7, 0x4b, 0xbd, 0x7f, 0x6e, 0x0a, 0xbd, 0x29, 0x95,
    0xc7, 0xbb, 0x9c, 0x8f, 0x33, 0xbd, 0x98, 0x8e, 0x0e, 0xbd,
    0x33, 0x57, 0x13, 0xbb, 0xee, 0x5a, 0x93, 0xbb, 0x45, 0xe3,
    0x04, 0xbd, 0x17, 0xca, 0x1c, 0xbc, 0xd7, 0xad, 0xe0, 0x3b,
    0x57, 0xd4, 0x52, 0xbd, 0x70, 0xce, 0xfd, 0xbb, 0x36, 0x9a,
    0xd0, 0xb9, 0xbe, 0xd3, 0xe5, 0x3c, 0x0b, 0x6a, 0x0c, 0xbc,
    0xb1, 0x61, 0x27, 0x3d, 0xde, 0x53, 0x58, 0xbd, 0x4c, 0x6c,
    0x8f, 0xbc, 0x38, 0x6e, 0xf7, 0x3c, 0x97, 0xbb, 0x77, 0xbc,
    0xb6, 0xa4, 0x0c, 0x3d, 0xe5, 0xa3, 0x53, 0x3b, 0xa6, 0xc9,
    0x39, 0x3c, 0xc0, 0xfa, 0xa4, 0x3c, 0x23, 0x39, 0x73, 0x3b,
    0x1f, 0x7a, 0x99, 0x3c, 0x80, 0xcf, 0xcb, 0xbc, 0x13, 0x36,
    0xbf, 0x39, 0xb6, 0xbf, 0x25, 0x3c, 0xbe, 0x37, 0xfe, 0xbc,
    0x72, 0x06, 0x08, 0xbd, 0xbb, 0x9f, 0x14, 0x3d, 0xd6, 0x2f,
    0xc7, 0xbc, 0xb1, 0xab, 0x66, 0xbd, 0x01, 0x86, 0x0c, 0x3d,
    0xa1, 0x33, 0x96, 0x3c, 0x3b, 0xf8, 0xb3, 0x3c, 0x1f, 0x5e,
    0xe7, 0xbb, 0xc9, 0x87, 0x16, 0xbd, 0x2f, 0x3e, 0x43, 0xbd,
    0xc9, 0xa3, 0xe7, 0xbc, 0x67, 0x23, 0x2c, 0xbd, 0xe9, 0xf9,
    0xca, 0xbb, 0x0a, 0x0d, 0xd5, 0xbc, 0xdd, 0x16, 0x80, 0xbc,
    0x6a, 0x64, 0xf7, 0x3c, 0x34, 0x94, 0x6e, 0xbc, 0x4d, 0x6e,
    0xa8, 0x3b, 0x21, 0x6f, 0x29, 0x3c, 0xe8, 0x11, 0x1e, 0xbc,
    0x4c, 0x5f, 0xaa, 0x3c, 0x44, 0xbd, 0x45, 0x3c, 0xc2, 0x55,
    0xec, 0x3a, 0x2a, 0xb8, 0x6b, 0x3c, 0xd1, 0xe5, 0xce, 0xbd,
    0x43, 0xf1, 0xe9, 0xbd, 0x59, 0x83, 0x65, 0x3d, 0xcc, 0x9d,
    0xc3, 0x3d, 0x2c, 0x1e, 0xc5, 0x3a, 0xbe, 0xbe, 0xc5, 0x3c,
    0x0b, 0x01, 0x6b, 0x3d, 0x2a, 0x12, 0xe6, 0x3d, 0xa1, 0x9f,
    0x4b, 0x3c, 0xe9, 0x66, 0x54, 0x3d, 0x43, 0xd4, 0x52, 0x3c,
    0xc6, 0x55, 0xae, 0xbd, 0x53, 0xc5, 0xa1, 0xbd, 0x19, 0x64,
    0x99, 0x3c, 0xbb, 0x1b, 0x83, 0xbd, 0x30, 0xa9, 0xf5, 0x3b,
    0x2c, 0xd2, 0x4b, 0xbd, 0x43, 0xcc, 0x42, 0xbd, 0x9f, 0xff,
    0x64, 0xbd, 0x8a, 0x2a, 0xd4, 0xbd, 0xfd, 0x7e, 0x8b, 0x3c,
    0xaf, 0x4c, 0x08, 0xbc, 0x6a, 0x07, 0xaa, 0x3c, 0xa6, 0xc5,
    0xc9, 0x3d, 0x5d, 0x1c, 0xc3, 0x3d, 0xc2, 0xae, 0x3c, 0x3e,
    0xcb, 0xc7, 0x1f, 0x3e, 0xde, 0x7e, 0xe1, 0x3d, 0x07, 0x34,
    0xfe, 0x3d, 0x92, 0xd9, 0xe0, 0x3d, 0xc5, 0x7a, 0x4d, 0x3e,
    0x06, 0xcc, 0x4f, 0x3e, 0xe0, 0x51, 0x44, 0x3e, 0x27, 0x9a,
    0x63, 0x3e, 0x1b, 0x7b, 0x60, 0x3e, 0x27, 0x53, 0x83, 0x3e,
    0x89, 0x4f, 0x6c, 0x3e, 0xc4, 0x8a, 0xa5, 0x3e, 0xda, 0xc2,
    0xb7, 0x3e, 0x85, 0xa8, 0xbc, 0x3e, 0xd9, 0xa5, 0xbd, 0x3e,
    0x7f, 0xd2, 0x59, 0x3e, 0x75, 0x58, 0x7a, 0x3e, 0x0f, 0xf4,
    0x2a, 0x3e, 0x0e, 0x7a, 0x72, 0x3e, 0x88, 0x7f, 0x88, 0x3e,
    0xc1, 0xeb, 0xba, 0x3e, 0xe2, 0x32, 0xd2, 0x3e, 0xda, 0xc1,
    0x8c, 0x3e, 0x35, 0xf6, 0x46, 0x3e, 0x33, 0x8c, 0x5c, 0x3e,
    0xeb, 0x2e, 0x26, 0x3e, 0xa8, 0x8d, 0xc0, 0x3d, 0x3e, 0xc2,
    0xe6, 0xbb, 0x50, 0x34, 0xd2, 0xbd, 0x53, 0x9a, 0x2a, 0xbe,
    0x49, 0x19, 0x35, 0xbd, 0x1a, 0x32, 0x8d, 0xbc, 0xa8, 0x43,
    0x2d, 0xbd, 0xae, 0x41, 0xf7, 0x3a, 0xad, 0x78, 0x11, 0x3a,
    0xbe, 0x5e, 0x10, 0xbd, 0x17, 0x8c, 0x0e, 0x3e, 0x58, 0xcd,
    0x4b, 0x3e, 0x2a, 0x03, 0x41, 0x3e, 0x26, 0x26, 0x19, 0x3e,
    0x3c, 0x41, 0xa3, 0x3c, 0xad, 0x16, 0xba, 0x3d, 0xa0, 0x23,
    0x93, 0x3b, 0x94, 0x51, 0x9f, 0xbd, 0x15, 0x4e, 0xbe, 0xbd,
    0x33, 0x21, 0x7c, 0xbd, 0x63, 0xde, 0xb2, 0xbc, 0x4e, 0xc2,
    0x98, 0xbd, 0x43, 0xd4, 0xed, 0xbc, 0x77, 0x5c, 0xc4, 0xbc,
    0xd5, 0xdb, 0xb7, 0x3c, 0x81, 0x33, 0x57, 0x3d, 0xdb, 0x8f,
    0x3e, 0x3d, 0x63, 0xaf, 0x53, 0xbd, 0xe4, 0x61, 0xa5, 0xbc,
    0x67, 0xcf, 0x57, 0x3d, 0x63, 0x13, 0x75, 0x3d, 0x94, 0xdd,
    0x96, 0x3d, 0x14, 0x3f, 0xc7, 0x3c, 0xfe, 0x9d, 0x7b, 0x3d,
    0xe0, 0x15, 0x55, 0x3c, 0xf9, 0x5d, 0xa8, 0xbc, 0xbc, 0x65,
    0x0d, 0x3d, 0xef, 0x2a, 0x8c, 0xbc, 0x74, 0xcf, 0xa1, 0xba,
    0x8c, 0x29, 0x3e, 0xbd, 0x3a, 0x05, 0x49, 0xbb, 0xe4, 0x66,
    0xd3, 0x3b, 0xde, 0x1e, 0x36, 0x3c, 0xea, 0x25, 0x02, 0x3c,
    0x04, 0x24, 0xc0, 0xba, 0xd3, 0xcc, 0x2f, 0xbd, 0x68, 0xb6,
    0x12, 0xbd, 0xeb, 0xe4, 0xb1, 0xbd, 0x7f, 0x05, 0x83, 0xbd,
    0xd2, 0x61, 0xc5, 0xbc, 0x4b, 0xcd, 0x1e, 0xbd, 0x88, 0x65,
    0x0f, 0x3b, 0xb4, 0x81, 0xb1, 0xbd, 0xa7, 0x5a, 0xa9, 0xbd,
    0x48, 0x36, 0xa5, 0xbd, 0x32, 0x83, 0xd5, 0xbb, 0xa4, 0x35,
    0x9c, 0xbd, 0xdf, 0x94, 0x55, 0x3a, 0xbb, 0xc2, 0xf3, 0xbc,
    0x11, 0x0c, 0x0c, 0x3d, 0xce, 0x30, 0x2d, 0x3d, 0x80, 0xff,
    0x56, 0x3c, 0x45, 0x96, 0x70, 0xbd, 0x3e, 0x7e, 0x31, 0x3d,
    0x29, 0x4a, 0x80, 0xbc, 0xfd, 0xf1, 0x36, 0x3d, 0x80, 0x2e,
    0x03, 0x3c, 0xe2, 0xbb, 0x4a, 0xbd, 0xb0, 0x84, 0x4c, 0xbd,
    0x2c, 0xf8, 0x5b, 0xbd, 0xfa, 0xe3, 0x3a, 0xbc, 0xaf, 0xc9,
    0xa0, 0xbc, 0x3a, 0x72, 0x4e, 0xbd, 0xd0, 0xf5, 0x22, 0xbd,
    0x70, 0xed, 0x93, 0xbc, 0x97, 0xdf, 0x6f, 0xbd, 0xbf, 0x94,
    0x69, 0xbd, 0xc4, 0x37, 0xe5, 0xbc, 0xab, 0xb1, 0xb4, 0xbd,
    0xcd, 0x7c, 0x02, 0xbd, 0x6c, 0xcc, 0x5b, 0xbd, 0xc1, 0x63,
    0x8c, 0xbd, 0x29, 0xaf, 0xbb, 0xbc, 0x74, 0x55, 0x85, 0x3c,
    0x3e, 0xde, 0x06, 0xbd, 0x07, 0x32, 0x95, 0xbd, 0xf6, 0x77,
    0xa8, 0x3b, 0x67, 0x03, 0x12, 0xbd, 0xd7, 0x36, 0x3c, 0xbd,
    0xa5, 0x1e, 0x49, 0x3c, 0x21, 0xda, 0x75, 0x3b, 0xae, 0x95,
    0x04, 0xbd, 0xec, 0xc0, 0xf9, 0x3a, 0x04, 0x16, 0x8d, 0xbd,
    0x12, 0xc5, 0x85, 0xbc, 0x13, 0x1d, 0xba, 0xbd, 0x29, 0x79,
    0xbe, 0xbd, 0xab, 0x02, 0x6b, 0xbd, 0x9f, 0xba, 0x5e, 0xbd,
    0x6e, 0x18, 0x2b, 0xbd, 0xbc, 0x3d, 0x72, 0xbc, 0xe4, 0xed,
    0x7a, 0xbd, 0x92, 0x89, 0x2d, 0x3b, 0xcf, 0xe3, 0x5b, 0xbd,
    0xfe, 0x19, 0x21, 0xbd, 0x40, 0x98, 0x86, 0xbd, 0xe0, 0x8f,
    0x01, 0xbc, 0x00, 0xb6, 0xaf, 0xbd, 0xf7, 0xc8, 0xcf, 0xbc,
    0xa4, 0x59, 0x11, 0xbc, 0x35, 0xfe, 0x93, 0xbd, 0x25, 0xfe,
    0xee, 0x3c, 0x0b, 0x6f, 0xef, 0xbc, 0x86, 0x0f, 0x48, 0xbd,
    0x87, 0xc6, 0x5e, 0xbd, 0xcd, 0xd3, 0xc1, 0xbd, 0x56, 0xe3,
    0x89, 0xbd, 0xc0, 0xc9, 0xdc, 0xbd, 0x5a, 0xc7, 0x4b, 0xbd,
    0xd7, 0x96, 0xa4, 0xbd, 0xb1, 0x37, 0xa3, 0xbd, 0x33, 0x6f,
    0xae, 0xbd, 0x1e, 0x81, 0x8a, 0xbd, 0x59, 0xde, 0xd9, 0xbc,
    0x0a, 0x32, 0x50, 0xbc, 0x91, 0x26, 0xa3, 0xbd, 0xe8, 0x03,
    0x77, 0xbd, 0x37, 0xb4, 0xc2, 0xbd, 0x9f, 0xc9, 0x40, 0xbd,
    0x75, 0x95, 0xc1, 0xbd, 0x09, 0x61, 0xb6, 0xbd, 0x7e, 0x51,
    0x38, 0xbd, 0x0c, 0x70, 0xc3, 0xbd, 0xd8, 0x03, 0x94, 0xbd,
    0xf3, 0xef, 0xd0, 0xbd, 0xba, 0x06, 0x81, 0xbc, 0x3b, 0x88,
    0x16, 0x3c, 0xa0, 0x4b, 0x14, 0xbd, 0x5b, 0xb3, 0x7d, 0xbc,
    0x4f, 0x08, 0x8e, 0xbd, 0x69, 0xea, 0x57, 0xbd, 0x6c, 0xdf,
    0xbf, 0xbd, 0x48, 0x59, 0x69, 0xbd, 0xbb, 0x6e, 0xad, 0xbc,
    0xf9, 0x85, 0x40, 0xbd, 0xca, 0x37, 0x36, 0xbd, 0xc8, 0x06,
    0xc8, 0xbd, 0x03, 0x29, 0xa6, 0xbd, 0x01, 0xc2, 0x2e, 0xbd,
    0x7b, 0x52, 0x8e, 0xbc, 0xf3, 0x6f, 0xed, 0x3c, 0x7e, 0x92,
    0x22, 0xbd, 0x05, 0x5f, 0x4b, 0xbd, 0x80, 0xad, 0x75, 0xbd,
    0x88, 0x93, 0xa4, 0xbd, 0xa7, 0x28, 0xbd, 0xbb, 0x2b, 0x84,
    0x56, 0xbc, 0x95, 0x9a, 0xb3, 0xbd, 0xfd, 0x89, 0x84, 0xbc,
    0x2f, 0x8d, 0xc1, 0xbc, 0x1c, 0x26, 0x7a, 0xbd, 0x4d, 0xae,
    0xac, 0xbd, 0x32, 0xef, 0x87, 0xbd, 0x1c, 0x83, 0x3d, 0xbd,
    0x7d, 0x02, 0x88, 0xbd, 0xb8, 0xe7, 0xc1, 0x3c, 0x07, 0xbf,
    0x42, 0xbd, 0x5a, 0xed, 0xa2, 0xbd, 0x1b, 0x83, 0x4a, 0x3c,
    0xdb, 0xfc, 0x39, 0xbc, 0x5e, 0x05, 0xaa, 0xbd, 0xe5, 0x5b,
    0x44, 0xbd, 0x8c, 0x48, 0xa4, 0xbd, 0x88, 0x4f, 0xa3, 0xbd,
    0x2d, 0xe0, 0xa4, 0x3b, 0x41, 0xd8, 0x99, 0xbc, 0xbd, 0x8a,
    0x78, 0x3d, 0xd1, 0x30, 0x81, 0x3d, 0x5f, 0x38, 0x23, 0xbc,
    0xa6, 0xcd, 0x5d, 0xbc, 0x9f, 0xf2, 0x18, 0xbd, 0x8f, 0xc3,
    0x83, 0xbd, 0x78, 0x4d, 0x89, 0xbd, 0xbe, 0xaa, 0x64, 0xbd,
    0xaf, 0xbf, 0xd0, 0xbd, 0xfe, 0x9b, 0x29, 0xbd, 0x06, 0xdd,
    0x8e, 0x3d, 0xef, 0xae, 0x72, 0x3d, 0x68, 0xd6, 0x3b, 0x3d,
    0xde, 0x66, 0x88, 0x3b, 0xc0, 0x76, 0xa1, 0x3d, 0x3b, 0x1b,
    0x85, 0x3d, 0x51, 0xd4, 0xc4, 0xb9, 0x26, 0x7c, 0x4b, 0xbd,
    0x55, 0x57, 0x84, 0x3a, 0xf0, 0x93, 0xe2, 0xbd, 0xd1, 0x26,
    0x52, 0xbd, 0xe9, 0x5b, 0xf8, 0xbc, 0x32, 0x42, 0xad, 0x3c,
    0xf7, 0xa8, 0x82, 0x3c, 0x4c, 0x8d, 0x99, 0x3c, 0xb0, 0xb0,
    0xdf, 0xbc, 0xa0, 0x37, 0x60, 0xbd, 0x21, 0xfc, 0x81, 0xbd,
    0x8e, 0x23, 0xa5, 0xbc, 0xd7, 0x99, 0x9e, 0xbc, 0x8a, 0xe3,
    0x56, 0xbd, 0x79, 0xb0, 0x20, 0xbd, 0x4b, 0x3f, 0xa6, 0xbc,
    0x1d, 0x4c, 0x84, 0xbd, 0xbd, 0xdb, 0x48, 0x3b, 0x2e, 0xcf,
    0x0a, 0xbe, 0xdc, 0x8d, 0xfb, 0xbd, 0x79, 0x4a, 0x10, 0xbe,
    0x48, 0x91, 0xd0, 0x3c, 0x1b, 0x64, 0x42, 0x3d, 0x1c, 0xd3,
    0xf8, 0xbc, 0x76, 0x63, 0xdb, 0xbd, 0x06, 0x00, 0x08, 0x3d,
    0x76, 0x59, 0x2d, 0x3d, 0x04, 0xa6, 0x8d, 0xbd, 0x2e, 0xd5,
    0x0d, 0xbe, 0x1d, 0x91, 0x6d, 0xbc, 0x88, 0xe6, 0x1f, 0xbd,
    0xb8, 0x78, 0xaf, 0xbd, 0xb6, 0xb0, 0x62, 0x3c, 0xd2, 0xfc,
    0xdb, 0xbc, 0x23, 0xb9, 0x6b, 0xbd, 0x8b, 0xa0, 0xaf, 0x3d,
    0xf5, 0xb2, 0x11, 0x3d, 0x1b, 0xb6, 0x29, 0xbd, 0x73, 0x56,
    0x2f, 0xbd, 0x4b, 0x3d, 0x8c, 0xb9, 0x88, 0x58, 0xdf, 0xbd,
    0xa3, 0x28, 0x51, 0xbd, 0xf5, 0x4d, 0x00, 0x3e, 0x4e, 0xef,
    0x08, 0xbd, 0x6a, 0x14, 0xbc, 0xbc, 0x3b, 0x67, 0x21, 0xbc,
    0xf0, 0x4a, 0xb3, 0x3d, 0x4d, 0xc2, 0x1e, 0x3d, 0x1b, 0x46,
    0xee, 0xbd, 0x25, 0xea, 0x1d, 0xbd, 0x10, 0x8f, 0xab, 0xbd,
    0x76, 0x0e, 0xc3, 0xbd, 0x8e, 0xd4, 0x9c, 0xbd, 0x97, 0x06,
    0x95, 0xbc, 0x52, 0x8e, 0x72, 0xbc, 0xfe, 0x82, 0x7c, 0x3d,
    0xf4, 0xe9, 0xd2, 0xb8, 0xe7, 0xd4, 0x34, 0x3d, 0x6d, 0x6c,
    0xea, 0xbc, 0x16, 0xbe, 0x97, 0xbd, 0x5f, 0xf4, 0xb8, 0xbd,
    0x76, 0xe1, 0xb7, 0xbd, 0x82, 0xe0, 0x23, 0xbe, 0x17, 0xbe,
    0xaf, 0xbd, 0xfc, 0x0b, 0xca, 0xbb, 0x92, 0x26, 0x4b, 0x3d,
    0x7f, 0x1b, 0x93, 0x3c, 0xf9, 0x09, 0x8d, 0xbd, 0xce, 0x1c,
    0x14, 0xbd, 0x55, 0xc2, 0x31, 0xbd, 0x22, 0xfb, 0x40, 0xbd,
    0x3f, 0x0e, 0x53, 0xbd, 0xb1, 0xae, 0xa0, 0x3b, 0x6f, 0xe6,
    0xa2, 0xbd, 0xc8, 0x75, 0x27, 0x3d, 0x07, 0xd9, 0xb3, 0x3d,
    0xdf, 0x6f, 0x83, 0x3d, 0xbd, 0x7b, 0xb8, 0x3d, 0xac, 0x12,
    0xd1, 0x3d, 0x14, 0x1a, 0xbd, 0x3d, 0x54, 0x59, 0x28, 0x3e,
    0x96, 0xcc, 0xf6, 0x3d, 0xba, 0xce, 0x22, 0x3e, 0xaa, 0x6b,
    0x93, 0x3c, 0x22, 0x59, 0x44, 0x3c, 0x00, 0x3c, 0x14, 0xbd,
    0xff, 0xf1, 0xb0, 0x3d, 0xe8, 0x1c, 0x51, 0xbd, 0x1e, 0x90,
    0x49, 0x3c, 0xf2, 0x91, 0x0c, 0x3e, 0xe7, 0x53, 0xe4, 0x3d,
    0x55, 0x1d, 0x52, 0x3d, 0x55, 0x8e, 0xf1, 0xbc, 0x04, 0x41,
    0xd3, 0xbd, 0x0f, 0x5d, 0x21, 0xbe, 0x60, 0xcf, 0x48, 0xbe,
    0x44, 0x1d, 0xe9, 0xbd, 0x23, 0x8a, 0x59, 0x3c, 0x3b, 0x39,
    0x3c, 0x3d, 0x65, 0x38, 0xae, 0x3d, 0x0e, 0x12, 0x9f, 0xbb,
    0xac, 0x17, 0x6f, 0xbd, 0xa5, 0x79, 0x87, 0x3d, 0xdb, 0xf9,
    0x06, 0x3e, 0x58, 0x38, 0x4d, 0xbc, 0xc6, 0x63, 0x1e, 0xbd,
    0x54, 0x51, 0x01, 0xbe, 0xb0, 0x12, 0x06, 0xbe, 0x48, 0xbb,
    0xef, 0xbd, 0x5b, 0xfb, 0x8d, 0xbd, 0x5a, 0x19, 0xa4, 0xbd,
    0xa8, 0x24, 0xc2, 0xbd, 0xcf, 0xb2, 0xb4, 0xbd, 0xd1, 0x35,
    0xca, 0xbd, 0x85, 0xe8, 0xce, 0xbd, 0xe2, 0x16, 0xb7, 0xbd,
    0x12, 0x13, 0xa9, 0xbd, 0x8d, 0x39, 0x15, 0xbe, 0xff, 0x96,
    0x35, 0xbd, 0x9a, 0x8b, 0x0d, 0x3e, 0x9a, 0x9e, 0x7a, 0xbc,
    0xfd, 0xf9, 0x85, 0x3d, 0x7a, 0xb4, 0x2c, 0x3d, 0x75, 0x63,
    0xa8, 0xbc, 0xf8, 0xbc, 0xdb, 0x3c, 0x3f, 0x19, 0x2b, 0xbc,
    0x49, 0xf2, 0xa1, 0xbd, 0x6d, 0x2b, 0x55, 0x3d, 0x58, 0xdf,
    0xeb, 0xbd, 0xbe, 0x05, 0x92, 0xbd, 0x3d, 0x73, 0xeb, 0xbc,
    0x62, 0xf3, 0xdd, 0xbd, 0xf2, 0x4a, 0xec, 0xbd, 0x72, 0xf2,
    0xe1, 0xbd, 0x86, 0xcd, 0x1c, 0xbc, 0x8c, 0x17, 0x2c, 0xbe,
    0x9b, 0x9b, 0xa6, 0x3c, 0x34, 0xff, 0xed, 0x3c, 0x96, 0x57,
    0xc4, 0x3d, 0x2a, 0x5f, 0xb9, 0x3d, 0x08, 0x59, 0x3d, 0x3c,
    0x71, 0x00, 0x72, 0xbd, 0xf2, 0x59, 0xe2, 0x3d, 0x6d, 0xda,
    0x91, 0xbc, 0x5a, 0x33, 0x2a, 0xbd, 0xff, 0x5e, 0x77, 0xbd,
    0x10, 0xbd, 0xec, 0x3d, 0xf1, 0x44, 0x19, 0x3e, 0x52, 0x34,
    0x71, 0x3e, 0x20, 0xd6, 0x9b, 0x3d, 0xd9, 0x72, 0x0e, 0xbd,
    0x81, 0x06, 0x0c, 0xbe, 0xaf, 0xe3, 0x6d, 0x3d, 0x48, 0xc9,
    0xe5, 0xbc, 0xa8, 0x24, 0xea, 0xbd, 0x84, 0xcd, 0xf3, 0xbc,
    0x6a, 0xe0, 0xdf, 0xbc, 0x10, 0xaf, 0x0a, 0xbd, 0x5c, 0x6e,
    0xde, 0xbc, 0x6a, 0xfd, 0x94, 0xbd, 0x83, 0x1c, 0x26, 0xbd,
    0xff, 0x7a, 0x00, 0xbe, 0x91, 0x71, 0x97, 0xbc, 0x87, 0x32,
    0x0c, 0x3e, 0x22, 0x15, 0x08, 0x3d, 0x3a, 0x8f, 0x65, 0x3c,
    0x88, 0x0e, 0xdb, 0x3d, 0x1f, 0xde, 0x29, 0x3d, 0x7f, 0xd7,
    0x1e, 0xbc, 0x2e, 0x0e, 0x47, 0x3c, 0x7b, 0xcb, 0xfb, 0x3c,
    0x3a, 0x18, 0x9a, 0x3c, 0xef, 0x5e, 0x28, 0x3b, 0x8d, 0x43,
    0x7b, 0xbd, 0xb0, 0x02, 0x2f, 0x3d, 0x96, 0x21, 0x13, 0x3d,
    0x27, 0x8d, 0x0a, 0x3d, 0x79, 0x74, 0xc3, 0xbd, 0xbf, 0x54,
    0x4d, 0x3e, 0x30, 0x11, 0x67, 0x3d, 0x26, 0x69, 0x21, 0xbd,
    0x58, 0xb6, 0xf5, 0xba, 0x22, 0xbd, 0x45, 0x3c, 0xb7, 0x95,
    0xb7, 0x3d, 0x8a, 0xe8, 0x45, 0x3d, 0x5c, 0x16, 0x40, 0xbd,
    0x95, 0x0f, 0xd1, 0xbc, 0x07, 0xa9, 0x17, 0x3d, 0xd7, 0x67,
    0xee, 0xbc, 0x70, 0x05, 0xd4, 0x3c, 0x79, 0xa4, 0xb9, 0x3d,
    0xc4, 0xec, 0xa3, 0x3d, 0x41, 0x6a, 0x0f, 0x3d, 0xc3, 0xe2,
    0xe4, 0x3d, 0x93, 0x7e, 0xd9, 0x3d, 0xb9, 0x48, 0x55, 0xbd,
    0x3e, 0x26, 0x33, 0x3d, 0x46, 0xf5, 0x5f, 0xba, 0x26, 0x0d,
    0x0c, 0xbc, 0x4a, 0x54, 0x0c, 0xbd, 0x25, 0x01, 0xa1, 0x3d,
    0xcb, 0x5c, 0xcb, 0x3d, 0x1e, 0x4b, 0x1c, 0x3e, 0x8a, 0xf9,
    0x07, 0xbd, 0x70, 0x30, 0x01, 0xbc, 0xa7, 0x18, 0xb4, 0xbd,
    0xb4, 0x81, 0x5d, 0x3d, 0x22, 0x57, 0x29, 0x3e, 0x72, 0x2b,
    0x02, 0xbd, 0x90, 0xbf, 0x3c, 0x3d, 0xe0, 0x5d, 0x4e, 0x3d,
    0x9b, 0x2b, 0xdf, 0x3d, 0xc3, 0xad, 0xf3, 0x3d, 0x4a, 0x66,
    0x21, 0x3e, 0xf7, 0x76, 0xa8, 0xbc, 0xbf, 0x09, 0x03, 0x3e,
    0xd1, 0x6e, 0xc7, 0x3d, 0x64, 0x7c, 0xf2, 0x3c, 0x31, 0x9c,
    0xcf, 0xbc, 0x02, 0x94, 0x0f, 0x3e, 0xfa, 0x58, 0x26, 0x3d,
    0x4b, 0x03, 0xfe, 0x3c, 0xbc, 0x22, 0x95, 0x3d, 0xbe, 0x39,
    0x91, 0x3c, 0xa5, 0x75, 0x1c, 0xbd, 0x43, 0x2a, 0xda, 0xbc,
    0x12, 0x2a, 0x6f, 0xbd, 0xce, 0x7c, 0x7e, 0xbd, 0x27, 0x79,
    0xfb, 0x3b, 0xdd, 0xdf, 0x8c, 0x3d, 0xbf, 0x33, 0x8b, 0xbd,
    0xb8, 0x41, 0x40, 0xbd, 0x53, 0x81, 0xe7, 0xbd, 0xdb, 0x2c,
    0xcf, 0xbc, 0x21, 0xb6, 0xc0, 0xbd, 0xb2, 0x99, 0xf9, 0x3d,
    0x96, 0x8b, 0x21, 0x3d, 0xc2, 0x8c, 0x55, 0x3d, 0x1a, 0x18,
    0xe2, 0xbc, 0x93, 0xf9, 0x38, 0x3d, 0x28, 0x29, 0x30, 0x3d,
    0x75, 0x8e, 0x92, 0x3d, 0x7b, 0xf0, 0xa7, 0x3c, 0x02, 0x50,
    0xc5, 0x3d, 0x76, 0x19, 0xb1, 0x3d, 0x93, 0x72, 0x8a, 0x3d,
    0x03, 0x1d, 0x4d, 0x3c, 0x25, 0xb1, 0xab, 0x3d, 0x73, 0x61,
    0xb1, 0x3d, 0xbd, 0xc6, 0xf8, 0xbc, 0xc9, 0xe0, 0xd6, 0xbb,
    0xbf, 0xc2, 0x2c, 0x3d, 0xb8, 0xbf, 0x76, 0x3d, 0x31, 0x39,
    0x9a, 0x3d, 0xd3, 0xd4, 0x3b, 0x3e, 0x7e, 0xa5, 0x3e, 0x3e,
    0xbc, 0x5d, 0x8a, 0x3d, 0x7d, 0x98, 0xa2, 0x3d, 0x83, 0xce,
    0x3e, 0x3d, 0x3f, 0x24, 0x14, 0x3d, 0x1a, 0xe0, 0xbb, 0x3d,
    0xcc, 0x24, 0xb9, 0x3d, 0x6d, 0x8e, 0x85, 0x3d, 0x5b, 0x28,
    0xf5, 0x39, 0xad, 0xe2, 0x17, 0xbd, 0x32, 0xd9, 0x76, 0x3d,
    0xc8, 0xbe, 0x10, 0x3e, 0x93, 0x3e, 0x7a, 0x3e, 0x73, 0x58,
    0x4c, 0x3e, 0x57, 0xe2, 0xa3, 0x3d, 0xd5, 0x3c, 0xd4, 0x3d,
    0xbc, 0xf4, 0xdf, 0x3d, 0x01, 0xf3, 0xb8, 0x3d, 0xda, 0xd7,
    0x52, 0x3d, 0xc8, 0xe8, 0xd8, 0x3d, 0x61, 0xd1, 0x24, 0x3e,
    0x45, 0xbe, 0x99, 0x3d, 0x75, 0x1e, 0x11, 0x3e, 0x6e, 0xbf,
    0x1b, 0x3e, 0xb6, 0x7e, 0x1b, 0x3e, 0xe2, 0x7d, 0xcd, 0x3d,
    0x90, 0xce, 0x34, 0x3e, 0x7f, 0x03, 0x32, 0x3e, 0x1c, 0x18,
    0x26, 0x3e, 0xab, 0x0f, 0x34, 0x3e, 0xc8, 0x93, 0xf2, 0x3d,
    0x8e, 0x7f, 0x0c, 0x3e, 0x1e, 0x5c, 0x8c, 0x3d, 0x5a, 0x69,
    0xa1, 0x3d, 0x7d, 0xb9, 0xf0, 0x3d, 0x11, 0x2a, 0x97, 0x3d,
    0x8c, 0x6d, 0xa9, 0x3d, 0xb0, 0x07, 0x80, 0xbd, 0x35, 0x7e,
    0x7b, 0xbd, 0xe6, 0x74, 0x8d, 0xbc, 0x85, 0xdc, 0x00, 0xbd,
    0x79, 0xfc, 0x81, 0xbd, 0x29, 0x18, 0xee, 0xbd, 0xe2, 0xe4,
    0xb5, 0xbd, 0x64, 0x9c, 0xe0, 0xbd, 0xd2, 0xa0, 0x5c, 0xbe,
    0x10, 0x6f, 0x16, 0xbe, 0xf9, 0xe6, 0x08, 0xbe, 0x6a, 0x52,
    0xf6, 0xbd, 0x82, 0x0b, 0x71, 0xbe, 0xdb, 0xab, 0x6a, 0xbe,
    0x4a, 0x44, 0x3f, 0xbe, 0x7b, 0xe4, 0x26, 0xbe, 0x32, 0x45,
    0x29, 0xbe, 0xe7, 0xa9, 0x5a, 0xbe, 0x04, 0xbb, 0xe2, 0xbd,
    0xc0, 0xf5, 0x0d, 0xbe, 0x86, 0x5d, 0x45, 0xbe, 0x37, 0x41,
    0x80, 0xbe, 0xa8, 0x64, 0x8c, 0xbe, 0xbf, 0xb0, 0x1f, 0xbe,
    0x5c, 0x6c, 0x82, 0x3a, 0xe6, 0x34, 0x97, 0xbd, 0x78, 0x2f,
    0x00, 0xbd, 0x7d, 0x10, 0x8e, 0x3d, 0x72, 0x54, 0xae, 0x3d,
    0xf6, 0xc5, 0x17, 0x3e, 0xe5, 0x8f, 0x12, 0x3e, 0xd0, 0x96,
    0x53, 0x3e, 0xdd, 0x93, 0x18, 0x3e, 0x74, 0xdc, 0xf5, 0x3d,
    0x9c, 0x9b, 0x3a, 0x3e, 0x38, 0x88, 0xed, 0x3d, 0x0a, 0x79,
    0xd2, 0x3d, 0x38, 0xdd, 0x39, 0xbd, 0x98, 0x77, 0xa8, 0xbd,
    0x95, 0x47, 0x2f, 0xbe, 0xdf, 0x63, 0x85, 0x3c, 0xca, 0x58,
    0xa3, 0xbb, 0x3f, 0x56, 0x74, 0x3b, 0x15, 0xeb, 0x17, 0x3d,
    0x67, 0xe8, 0x31, 0x3e, 0xaf, 0x8a, 0x3b, 0x3e, 0x0b, 0x3a,
    0xfc, 0x3d, 0xe4, 0xa3, 0xd7, 0x3d, 0xf0, 0xc1, 0xa5, 0x3d,
    0x15, 0xac, 0x81, 0x3d, 0x04, 0x39, 0x3c, 0x3d, 0x44, 0x2d,
    0x90, 0x3d, 0xca, 0x45, 0xa0, 0xbb, 0x5b, 0x36, 0x9e, 0x3d,
    0x63, 0xc2, 0xb9, 0x3d, 0xdb, 0xfe, 0xfc, 0x3c, 0x29, 0x5e,
    0x7f, 0x3c, 0x38, 0x53, 0x80, 0x3d, 0x26, 0x5c, 0x82, 0x3c,
    0xf4, 0x5f, 0xf3, 0xbc, 0x5a, 0x3e, 0x8d, 0xbc, 0xd8, 0x04,
    0x9e, 0x3d, 0x7c, 0xe4, 0x20, 0x3c, 0xb7, 0xfa, 0x65, 0xba,
    0x1a, 0x14, 0xea, 0x3d, 0xbe, 0xd6, 0x02, 0x3e, 0xe3, 0x29,
    0x02, 0x3e, 0xa8, 0xa0, 0x7b, 0x3d, 0x2d, 0x79, 0xed, 0x3d,
    0x80, 0x02, 0x09, 0x3d, 0x36, 0xcd, 0xa4, 0x3d, 0xa6, 0x39,
    0x30, 0x3d, 0x54, 0xab, 0x8d, 0x3d, 0x00, 0x66, 0x13, 0x3e,
    0x8e, 0x65, 0x2b, 0x3e, 0x15, 0x0b, 0x17, 0x3e, 0xbb, 0xf0,
    0xb5, 0x3d, 0x04, 0x7f, 0xbd, 0x3c, 0xd9, 0x2b, 0xa3, 0x3d,
    0x82, 0x66, 0xab, 0x3d, 0x47, 0x45, 0xe8, 0x3d, 0x9f, 0x37,
    0xba, 0x3d, 0x01, 0x81, 0x96, 0x3d, 0x46, 0xa3, 0x01, 0x3e,
    0x05, 0x24, 0xf0, 0x3d, 0xf0, 0x18, 0x8b, 0x3d, 0x59, 0x20,
    0xa5, 0x3d, 0xa5, 0xba, 0x83, 0x3d, 0xc7, 0x9c, 0x49, 0x3d,
    0xea, 0xc1, 0x9d, 0x3d, 0x8c, 0xb2, 0xb4, 0x3d, 0x0c, 0x56,
    0xbf, 0x3b, 0xc0, 0xab, 0xcd, 0x3b, 0x6f, 0xda, 0x8c, 0x3b,
    0xa0, 0x94, 0x43, 0x3d, 0x64, 0x00, 0xb5, 0x3d, 0x0d, 0xc5,
    0xb4, 0x3d, 0x91, 0x75, 0xc6, 0x3d, 0x96, 0xd7, 0x0b, 0x3e,
    0xae, 0xe4, 0xc3, 0x3d, 0xc2, 0x08, 0xb0, 0x3c, 0x9c, 0x9e,
    0x4e, 0x3d, 0xee, 0x93, 0xcc, 0x3d, 0x6e, 0xbb, 0xa4, 0x3d,
    0xc5, 0xd5, 0xfa, 0x3d, 0x6c, 0x2d, 0x02, 0x3e, 0x41, 0x18,
    0x04, 0x3e, 0xb1, 0xd3, 0x7b, 0x3d, 0xc8, 0xc8, 0x8a, 0x3d,
    0x5c, 0x20, 0x59, 0x3d, 0x5c, 0x0b, 0x78, 0x3d, 0x64, 0x99,
    0x6e, 0x3d, 0x7f, 0xf6, 0x8e, 0x3d, 0x8d, 0x86, 0xbe, 0x3d,
    0xf6, 0x8b, 0x01, 0x3e, 0x00, 0x16, 0xeb, 0x3d, 0xa6, 0x61,
    0x93, 0x3d, 0x93, 0x52, 0x4c, 0x3d, 0xd3, 0xc6, 0xd8, 0x3d,
    0x8e, 0x7d, 0x7c, 0x3d, 0xf2, 0xe1, 0xc9, 0x3d, 0xac, 0xf3,
    0xd6, 0x3d, 0x73, 0x41, 0xf0, 0x3d, 0x41, 0x31, 0x17, 0x3e,
    0x06, 0x05, 0xf7, 0x3d, 0x18, 0xad, 0xb4, 0x3d, 0x22, 0x39,
    0x76, 0x3d, 0x73, 0x4e, 0xda, 0x3d, 0x80, 0x30, 0x7d, 0x3d,
    0x16, 0xcc, 0x9a, 0x3c, 0x6e, 0xa3, 0xfe, 0x3d, 0x02, 0xb4,
    0x0e, 0x3e, 0x74, 0x6e, 0x35, 0x3d, 0x19, 0xd3, 0x5f, 0x3c,
    0xcb, 0x1c, 0xfa, 0x3d, 0xa4, 0xef, 0xce, 0x3d, 0x80, 0x30,
    0x8c, 0x3d, 0x15, 0x4f, 0xb9, 0x3d, 0x05, 0x08, 0xb9, 0x3d,
    0x1a, 0xda, 0x68, 0x3d, 0x23, 0x0c, 0x2e, 0x3d, 0x8e, 0xaa,
    0xc4, 0x3d, 0x82, 0x48, 0x98, 0x3d, 0x54, 0xb4, 0x0d, 0x3e,
    0x46, 0x29, 0x1e, 0x3e, 0x51, 0x4b, 0x25, 0x3d, 0xde, 0x57,
    0x05, 0x3e, 0x5b, 0xd4, 0x2b, 0x3e, 0xec, 0xaa, 0x22, 0x3e,
    0xd8, 0xd7, 0x1d, 0x3d, 0xb4, 0xcb, 0xd1, 0x3d, 0x66, 0xb9,
    0x5d, 0x3d, 0x89, 0xdb, 0xca, 0x3d, 0x3d, 0xf0, 0xd1, 0x3d,
    0x87, 0xcb, 0x9d, 0x3d, 0xd1, 0x7d, 0xa7, 0x3d, 0x10, 0x5b,
    0xbf, 0x3d, 0x66, 0x73, 0x86, 0x3d, 0x8b, 0x15, 0x77, 0x3d,
    0x6b, 0xdc, 0x96, 0x3d, 0x4c, 0x1a, 0x03, 0x3e, 0x1c, 0xa4,
    0xc4, 0x3d, 0x02, 0xcd, 0x51, 0x3d, 0x96, 0xe0, 0x65, 0x3d,
    0x98, 0x36, 0x08, 0x3e, 0xed, 0x49, 0x88, 0x3d, 0xab, 0x5a,
    0xdb, 0x3d, 0xe6, 0x86, 0x09, 0x3e, 0xf3, 0xfb, 0x0c, 0x3e,
    0x20, 0xa4, 0x0b, 0x3e, 0x23, 0xf7, 0xb8, 0x3d, 0x70, 0xb7,
    0xdd, 0x3d, 0x0c, 0xea, 0xe0, 0x3d, 0xae, 0x88, 0xf6, 0x3d,
    0x9d, 0x96, 0xfc, 0x3d, 0x35, 0x8a, 0x12, 0x3e, 0x07, 0xdf,
    0xf5, 0x3d, 0x14, 0x5d, 0xd1, 0x3d, 0x1e, 0xea, 0xe7, 0x3d,
    0x6b, 0x89, 0x1a, 0x3e, 0x0e, 0xb4, 0xe5, 0x3d, 0x31, 0xbe,
    0x11, 0x3d, 0x54, 0x02, 0xb4, 0x3d, 0xf0, 0x2a, 0x2a, 0x3d,
    0xb5, 0xc6, 0x25, 0x3d, 0x48, 0x29, 0x4f, 0x3d, 0x7a, 0xe8,
    0xbd, 0x3d, 0x8c, 0x79, 0x8b, 0x3d, 0xa0, 0x6a, 0xf2, 0x3d,
    0xc2, 0xca, 0xba, 0x3d, 0xfb, 0x53, 0xb5, 0x3d, 0xf7, 0x4e,
    0xae, 0x3d, 0xab, 0xe3, 0x3b, 0x3d, 0xfa, 0xa9, 0xae, 0x3d,
    0xa9, 0x51, 0x03, 0x3e, 0x1f, 0xdc, 0x43, 0x3d, 0x4e, 0x2d,
    0x50, 0x3c, 0x76, 0xa7, 0x55, 0x3d, 0x5f, 0xdb, 0x0c, 0x3e,
    0x97, 0xb1, 0xd2, 0x3d, 0x32, 0xea, 0x99, 0x3d, 0x77, 0xa4,
    0x04, 0x3e, 0x45, 0xcb, 0x9c, 0x3d, 0x2f, 0x90, 0x6a, 0x3d,
    0xb0, 0xa8, 0x31, 0xbc, 0x3a, 0x37, 0x7f, 0x3d, 0xa0, 0xa0,
    0x04, 0x3d, 0x8c, 0xab, 0xb6, 0x3c, 0x79, 0x71, 0x87, 0x3d,
    0x1d, 0xad, 0x0e, 0x3e, 0xb3, 0x8f, 0xcd, 0x3d, 0x21, 0x57,
    0x1d, 0x3e, 0x9c, 0x2a, 0xde, 0x3d, 0x0a, 0x9b, 0x07, 0x3d,
    0x4c, 0xa4, 0x4a, 0xbd, 0xbd, 0x41, 0x94, 0xbb, 0x10, 0x04,
    0xcb, 0xbc, 0xb7, 0x95, 0xe3, 0xbc, 0xa8, 0xf5, 0xbf, 0x3c,
    0xc8, 0x03, 0x65, 0x3d, 0x12, 0x6a, 0x00, 0x3d, 0x54, 0x0c,
    0xc7, 0x3d, 0x80, 0x64, 0xd8, 0x3d, 0x93, 0x68, 0x08, 0x3e,
    0x35, 0xf6, 0xc7, 0x3d, 0x45, 0x1e, 0x09, 0xbd, 0x89, 0x4f,
    0xfe, 0x3c, 0xe1, 0xe6, 0xac, 0x3c, 0xce, 0x25, 0x1a, 0x3e,
    0x8a, 0xa0, 0x20, 0x3e, 0xfc, 0x92, 0x88, 0x3d, 0x3b, 0x6d,
    0xa9, 0xba, 0x50, 0x96, 0x6d, 0x3b, 0x24, 0x99, 0x84, 0x3c,
    0xdb, 0xbb, 0xad, 0x3d, 0x30, 0xee, 0xf3, 0x3d, 0x9d, 0xc8,
    0x03, 0x3e, 0xa4, 0x6f, 0xdd, 0x3d, 0xd5, 0xb3, 0x00, 0x3e,
    0xef, 0x9d, 0x5a, 0x3e, 0x19, 0x6d, 0x20, 0x3e, 0x84, 0x96,
    0x52, 0xbd, 0xd3, 0x82, 0x2f, 0x3d, 0x75, 0xe6, 0xca, 0x3d,
    0x26, 0x17, 0xe4, 0x3d, 0xe1, 0x0c, 0xd3, 0x3c, 0x2d, 0xdc,
    0xc2, 0x3d, 0xb8, 0x41, 0xaf, 0x3d, 0x86, 0x99, 0xeb, 0x3d,
    0xb7, 0xb9, 0x8a, 0x3d, 0xcb, 0x0a, 0x52, 0x3d, 0x18, 0xa0,
    0xef, 0x3d, 0x20, 0xe3, 0x73, 0x3d, 0x1c, 0xac, 0xe6, 0x3c,
    0x48, 0x4c, 0xd4, 0x3d, 0x0e, 0x54, 0x8d, 0x3d, 0xb4, 0xe4,
    0x0a, 0xbc, 0x87, 0x9c, 0xb3, 0x3d, 0x3f, 0xf6, 0xf4, 0x3d,
    0xde, 0x4c, 0xe8, 0x3d, 0x78, 0x1a, 0xcc, 0x3d, 0xfa, 0x35,
    0xad, 0x3d, 0xd4, 0x80, 0x57, 0xbb, 0x5c, 0x1d, 0xb3, 0x3d,
    0x14, 0x2c, 0xa7, 0x3d, 0xbd, 0x76, 0x64, 0x3d, 0x76, 0xb6,
    0x5c, 0xbd, 0x28, 0xda, 0xaa, 0x3d, 0xf0, 0xdb, 0xab, 0x3d,
    0xba, 0xa8, 0x84, 0x3d, 0x7d, 0xa7, 0xee, 0x3d, 0xa7, 0x33,
    0x35, 0x3e, 0xa5, 0xb5, 0x01, 0x3e, 0x96, 0xc7, 0x1f, 0x3d,
    0x5b, 0x18, 0xd7, 0xbc, 0xec, 0x23, 0x45, 0x3c, 0x80, 0x23,
    0xf6, 0x3d, 0xa3, 0xc3, 0x92, 0x3d, 0x2b, 0x29, 0x35, 0x3d,
    0x2d, 0x2f, 0xd0, 0x3d, 0x5b, 0xb9, 0x3f, 0x3e, 0x35, 0x5c,
    0x17, 0x3e, 0x9c, 0xd0, 0x3f, 0x3e, 0xc2, 0x88, 0xe6, 0x3d,
    0xe8, 0x25, 0xe9, 0x3d, 0x5b, 0x31, 0xa0, 0x3d, 0x21, 0x88,
    0x25, 0xbc, 0x83, 0x7b, 0xcb, 0x3d, 0x30, 0xff, 0xc4, 0x3d,
    0x22, 0x1c, 0x05, 0x3e, 0x4f, 0x81, 0xd9, 0x3d, 0x43, 0x80,
    0x93, 0x3d, 0x24, 0x5b, 0x9d, 0x3d, 0x8a, 0x5c, 0xe5, 0x3d,
    0x35, 0x2e, 0x64, 0x3d, 0x18, 0x20, 0x83, 0xbc, 0xf3, 0x94,
    0x85, 0xbd, 0xd2, 0xff, 0xa6, 0x3c, 0xde, 0x0d, 0x9f, 0xbd,
    0x02, 0x9c, 0xc7, 0xbd, 0xdf, 0x62, 0x1b, 0xbd, 0x3e, 0xa9,
    0xe1, 0xbc, 0x0a, 0x80, 0x48, 0xbd, 0x94, 0x8f, 0x11, 0x3c,
    0x58, 0x38, 0x7f, 0x3c, 0x01, 0xfb, 0x93, 0xbb, 0x32, 0x56,
    0x2a, 0xbd, 0x72, 0xe7, 0xf4, 0x3d, 0xbf, 0x11, 0x17, 0x3d,
    0x6b, 0xdd, 0x07, 0xbd, 0x17, 0x54, 0x5c, 0xbd, 0x23, 0x95,
    0x85, 0xbc, 0xd1, 0x7d, 0x6f, 0x3d, 0x64, 0xf9, 0xfc, 0x3d,
    0x6a, 0xb9, 0x33, 0x3e, 0x88, 0xd9, 0x36, 0x3e, 0x52, 0x81,
    0xcb, 0x3d, 0x01, 0x94, 0xbd, 0x3c, 0x32, 0x76, 0x7e, 0xbb,
    0xee, 0xc8, 0x4b, 0x3d, 0xb3, 0x97, 0x0c, 0x3d, 0x31, 0x54,
    0xe6, 0x3d, 0xe5, 0x60, 0x09, 0xbc, 0x48, 0x1d, 0x82, 0xbd,
    0x32, 0x89, 0x59, 0xbb, 0xe7, 0xb3, 0x24, 0x3e, 0x65, 0x17,
    0x53, 0x3e, 0x3c, 0xb9, 0x0a, 0x3e, 0xc2, 0x4b, 0x56, 0x3e,
    0x1a, 0xd2, 0x00, 0x3e, 0xe6, 0xa4, 0x1f, 0x3e, 0x37, 0x33,
    0x10, 0x3e, 0x37, 0x90, 0xb9, 0x3d, 0x0a, 0x32, 0x09, 0x3e,
    0xd5, 0x22, 0xe5, 0x3d, 0xd0, 0xed, 0x0c, 0x3e, 0x2c, 0xf6,
    0x08, 0x3e, 0x13, 0x0c, 0x59, 0x3e, 0x5c, 0x82, 0x00, 0x3e,
    0x53, 0xec, 0x00, 0xbd, 0x32, 0xe8, 0x87, 0x3d, 0x7b, 0x76,
    0x08, 0xbd, 0x64, 0x1a, 0x00, 0x3d, 0x4e, 0x28, 0xd1, 0x3d,
    0x81, 0x23, 0x9a, 0x3c, 0x11, 0x44, 0x28, 0x3d, 0xf7, 0x50,
    0x3a, 0x3e, 0x2d, 0xbb, 0x17, 0x3d, 0x04, 0x38, 0x2c, 0x3e,
    0x82, 0xc3, 0x38, 0x3e, 0x3a, 0x67, 0x03, 0x3e, 0xe2, 0x5f,
    0xef, 0x3d, 0x59, 0x6a, 0xfb, 0x3d, 0x02, 0xf7, 0x25, 0x3e,
    0x30, 0x09, 0xc2, 0x3d, 0x6f, 0x7f, 0x78, 0x3e, 0xe1, 0x3f,
    0xbf, 0x3c, 0x66, 0x14, 0xd2, 0x3d, 0x16, 0xec, 0x6a, 0xbc,
    0x21, 0x12, 0xd6, 0xbd, 0xec, 0x17, 0x89, 0xbd, 0x58, 0xcd,
    0x05, 0x3e, 0x15, 0xb6, 0xe3, 0xbc, 0x93, 0xf0, 0x2f, 0xbc,
    0x90, 0x47, 0xb0, 0x3d, 0x44, 0x4e, 0x6d, 0x3d, 0x25, 0xba,
    0xe2, 0xbc, 0x87, 0x05, 0x95, 0xbd, 0x88, 0xe7, 0x20, 0xbe,
    0xef, 0x40, 0xb8, 0x3c, 0xa0, 0x7c, 0x1b, 0x3e, 0xf5, 0x91,
    0xa9, 0x3d, 0xc2, 0x64, 0x43, 0x3d, 0x6b, 0xde, 0xc6, 0x3d,
    0x07, 0xf8, 0x35, 0x3e, 0x63, 0xb6, 0xc2, 0x3d, 0xff, 0x08,
    0x1f, 0x3d, 0x72, 0xcf, 0x7d, 0x3d, 0x63, 0x7d, 0xa7, 0x3d,
    0x85, 0x6d, 0xfc, 0x3d, 0xad, 0x69, 0xb9, 0x3d, 0x9d, 0xaf,
    0xfe, 0x3d, 0xef, 0xcd, 0xf4, 0x3d, 0xfb, 0xa5, 0x34, 0xbd,
    0x90, 0xb7, 0x38, 0x3d, 0x07, 0xe4, 0xc3, 0x3d, 0x49, 0x5e,
    0xe9, 0xbb, 0xe5, 0x5d, 0x21, 0x3d, 0x34, 0xae, 0xb6, 0x3d,
    0xb8, 0xbe, 0xce, 0x3d, 0x49, 0xd5, 0x6b, 0x3d, 0x93, 0x2c,
    0xe3, 0x3c, 0xc7, 0x70, 0x57, 0x3d, 0xa2, 0xb4, 0x93, 0x3a,
    0xd6, 0x68, 0x86, 0x3d, 0x56, 0xa1, 0x9e, 0x3b, 0x1c, 0x3a,
    0x71, 0x3d, 0xad, 0xb3, 0xf1, 0x3d, 0x77, 0x70, 0xbd, 0xbd,
    0x69, 0xa1, 0x3b, 0xbd, 0x6c, 0x46, 0xf9, 0x3d, 0xd1, 0x2b,
    0xdc, 0xbc, 0xd3, 0x95, 0xf9, 0xbc, 0xe7, 0xe9, 0x14, 0xbe,
    0x42, 0x82, 0xaa, 0xbd, 0x17, 0xd1, 0x09, 0x3e, 0x5f, 0x4d,
    0x03, 0x3e, 0xe6, 0x2f, 0x40, 0x3d, 0x55, 0x13, 0x00, 0x3d,
    0x7b, 0xb6, 0x46, 0x3d, 0xb4, 0xb6, 0x98, 0xbd, 0xc7, 0x92,
    0x83, 0x3d, 0x18, 0xb7, 0xae, 0x3d, 0x26, 0xd7, 0xff, 0xbd,
    0x95, 0x86, 0x3f, 0xbd, 0x03, 0x1b, 0x03, 0x3d, 0x45, 0x6a,
    0xc9, 0x3b, 0x20, 0xe9, 0xdd, 0x3d, 0xe8, 0x93, 0x0e, 0x3d,
    0x19, 0xee, 0xb0, 0x3d, 0x1b, 0x83, 0x3d, 0xbc, 0xe9, 0x37,
    0xff, 0xbd, 0xab, 0x8c, 0xdd, 0xbd, 0xbc, 0xdc, 0x1f, 0x3e,
    0x9a, 0xf3, 0xfa, 0xbb, 0x3d, 0x6b, 0x0a, 0x3e, 0x2d, 0x40,
    0x9e, 0xbb, 0x22, 0xf4, 0xc2, 0xbd, 0x99, 0x42, 0x2f, 0x3c,
    0xe8, 0x20, 0x00, 0xbd, 0x0b, 0xf0, 0x96, 0xb8, 0x0a, 0x7b,
    0xe6, 0x3b, 0x05, 0x9f, 0x54, 0xbc, 0x30, 0xfd, 0x36, 0xbd,
    0x2e, 0xce, 0xc4, 0x3d, 0x01, 0xf7, 0x17, 0xbd, 0x18, 0xbc,
    0xa1, 0xbd, 0x35, 0xb3, 0x45, 0xbc, 0x19, 0x05, 0xa5, 0x3d,
    0xd1, 0x54, 0x7e, 0xbd, 0x37, 0x5c, 0x6d, 0xbc, 0xf6, 0x18,
    0x0c, 0x3d, 0x25, 0x9d, 0x03, 0xbd, 0x6c, 0x3a, 0xc8, 0x3d,
    0x54, 0xaa, 0x7b, 0xbc, 0x49, 0x5c, 0xb0, 0x3d, 0x8e, 0x8d,
    0xcf, 0x3d, 0xf0, 0xc8, 0xf2, 0x3b, 0xab, 0x59, 0x32, 0x3c,
    0xbb, 0xb6, 0xd9, 0x3c, 0x5b, 0x06, 0x02, 0x3e, 0x5d, 0x60,
    0xe5, 0x3d, 0x23, 0x97, 0x1f, 0x3e, 0xe0, 0x2d, 0xbe, 0x3d,
    0x44, 0x04, 0x32, 0x3e, 0xd3, 0xcf, 0xf9, 0xbc, 0xf6, 0x28,
    0x2c, 0x3c, 0xac, 0xba, 0x7f, 0x3d, 0xaa, 0x1f, 0xc6, 0x3d,
    0x5c, 0x9c, 0xf1, 0xbc, 0xab, 0xe4, 0xa8, 0x3d, 0x24, 0x58,
    0xb7, 0xbd, 0x35, 0xc6, 0x14, 0xbd, 0x7c, 0xf1, 0x3d, 0x3d,
    0xa6, 0xd6, 0x31, 0xbd, 0xf1, 0xf4, 0x9b, 0xbc, 0x95, 0x0c,
    0xc2, 0x3d, 0x94, 0x3e, 0xa7, 0x3c, 0x6e, 0x5e, 0x3c, 0xbb,
    0x04, 0x62, 0x3b, 0x3d, 0x26, 0xf7, 0x54, 0x3d, 0x8b, 0xfc,
    0xda, 0x3c, 0x80, 0xf9, 0x83, 0xbc, 0xab, 0x3b, 0x6c, 0xbd,
    0x86, 0xbd, 0x89, 0xbd, 0xe3, 0xcc, 0xf8, 0xbd, 0x91, 0x4e,
    0x46, 0xbd, 0x23, 0x44, 0xd2, 0x3b, 0x12, 0x0c, 0xdf, 0xbc,
    0xd0, 0x3a, 0xa1, 0xbd, 0x8c, 0x1d, 0x93, 0xbd, 0xed, 0x6d,
    0xa5, 0x3c, 0xf8, 0xef, 0xf9, 0x3c, 0x5e, 0xb3, 0x5a, 0x3d,
    0x68, 0x2b, 0x24, 0x3d, 0x12, 0xbe, 0xaa, 0xbd, 0x02, 0xdf,
    0xfb, 0xbc, 0x4a, 0xb8, 0x50, 0xbc, 0xce, 0xc4, 0x15, 0xbd,
    0x26, 0x70, 0x40, 0xbd, 0xad, 0xd9, 0xdc, 0xbc, 0x09, 0x12,
    0xa7, 0x3c, 0xee, 0x0b, 0xf1, 0xbc, 0x08, 0x04, 0x2f, 0xbc,
    0x95, 0xf6, 0xdc, 0xbc, 0xd6, 0x43, 0x88, 0x3c, 0x13, 0x60,
    0xb1, 0x3b, 0x5e, 0xdc, 0x0b, 0x3d, 0x79, 0xe1, 0x3f, 0xbc,
    0x80, 0xd4, 0xad, 0xbc, 0xec, 0x4c, 0x0d, 0xbd, 0xd2, 0xbb,
    0x43, 0xbd, 0xab, 0x7c, 0x64, 0xbd, 0x07, 0x3e, 0x54, 0x3b,
    0xcc, 0x5e, 0x2c, 0xbd, 0xd4, 0xfe, 0x5b, 0xbd, 0xf7, 0xe3,
    0x79, 0xbd, 0xfa, 0x1d, 0x22, 0xbd, 0xf0, 0x85, 0x32, 0xbc,
    0x60, 0xda, 0x04, 0x3d, 0xfd, 0xd4, 0x23, 0xbc, 0x90, 0xbf,
    0xd2, 0x3c, 0x46, 0xe0, 0xfb, 0x3c, 0xda, 0x9d, 0xd0, 0xbb,
    0x7a, 0x0e, 0x5e, 0xbd, 0x0b, 0x83, 0x15, 0x3d, 0x83, 0x75,
    0xb3, 0xbc, 0x54, 0x45, 0xd7, 0xbc, 0xc1, 0x58, 0x20, 0xbd,
    0x48, 0xed, 0x9b, 0x3c, 0xe6, 0x0c, 0xba, 0x3c, 0x9d, 0xe0,
    0x1d, 0x3c, 0x61, 0x08, 0x5a, 0xbd, 0x4d, 0x32, 0x01, 0xbd,
    0xe8, 0xb0, 0x1b, 0x3d, 0x67, 0x35, 0x9a, 0xbc, 0x65, 0x16,
    0xdb, 0x3c, 0xb3, 0x3a, 0x21, 0xbc, 0x58, 0x9c, 0xe4, 0x3c,
    0x4b, 0x25, 0xae, 0x3c, 0x45, 0x97, 0x49, 0xbd, 0xa2, 0x51,
    0xe9, 0xbc, 0xd0, 0x96, 0x0f, 0x39, 0x9c, 0x84, 0x22, 0xbd,
    0x62, 0x27, 0x5a, 0xbd, 0xb3, 0xc0, 0x1d, 0xbc, 0xaa, 0xe1,
    0x71, 0xbd, 0x62, 0x26, 0x4a, 0xbc, 0x2e, 0x7d, 0x0e, 0xbd,
    0x1d, 0x1c, 0xb7, 0xbc, 0x2c, 0x88, 0x71, 0xbc, 0x5f, 0x0d,
    0x01, 0x3d, 0xfb, 0xa5, 0xea, 0xbc, 0x6a, 0x6c, 0x83, 0x3c,
    0x3c, 0xcc, 0xf0, 0x3a, 0x0e, 0xa5, 0x28, 0xbd, 0x47, 0x6d,
    0x64, 0xbd, 0xdc, 0xfd, 0xb2, 0xbc, 0xc8, 0x7b, 0x09, 0xbd,
    0x77, 0xd3, 0x70, 0xbd, 0x01, 0xcf, 0x62, 0x3b, 0x61, 0x58,
    0x8c, 0x3b, 0xcd, 0x61, 0xb5, 0x3b, 0x61, 0x84, 0xe9, 0x3b,
    0x58, 0x76, 0x91, 0x3c, 0x5a, 0x65, 0xf8, 0x3a, 0x5e, 0x0e,
    0x03, 0xbd, 0xd1, 0x36, 0x83, 0x3b, 0xc1, 0xe0, 0x6b, 0x3c,
    0x0c, 0x62, 0xee, 0x3c, 0x99, 0xa7, 0x14, 0xbb, 0x1d, 0x7f,
    0x14, 0xbd, 0x04, 0x5f, 0xe5, 0x3c, 0xbb, 0x56, 0x74, 0xbd,
    0x88, 0x88, 0xd5, 0xbc, 0xc7, 0x35, 0x9f, 0xbc, 0x56, 0xc6,
    0x40, 0x3c, 0xf5, 0xc5, 0x55, 0xbd, 0x36, 0x3e, 0x14, 0x3c,
    0xcf, 0x2c, 0x27, 0xbd, 0x44, 0xe1, 0xb7, 0x3c, 0xf7, 0xe5,
    0x81, 0x3b, 0xa8, 0x75, 0x28, 0xbd, 0xff, 0x96, 0x03, 0x3d,
    0xb4, 0xf4, 0x3c, 0xbd, 0xf7, 0xb5, 0x3c, 0xbc, 0x1c, 0x62,
    0xd5, 0x3c, 0x81, 0x00, 0x77, 0xbc, 0x68, 0xe4, 0xda, 0x3c,
    0x99, 0x70, 0xa5, 0x3b, 0xc5, 0xd4, 0xde, 0x3c, 0x4c, 0xb0,
    0x1c, 0xbd, 0x71, 0x81, 0xbf, 0xbb, 0x42, 0x6b, 0xb7, 0xbc,
    0x0e, 0x6c, 0xe6, 0xbb, 0x4c, 0xf5, 0x47, 0xbd, 0x17, 0x1c,
    0x00, 0xbd, 0xf4, 0x1c, 0x76, 0xbc, 0xfe, 0xa9, 0x52, 0xbd,
    0xe3, 0x77, 0xe8, 0xbc, 0xad, 0x20, 0xc9, 0x3c, 0x28, 0xde,
    0xeb, 0xbc, 0xc9, 0xe8, 0xe8, 0xbb, 0x9f, 0xaa, 0xca, 0x3c,
    0x78, 0x16, 0x88, 0x3c, 0x5b, 0x0a, 0x79, 0xbd, 0xda, 0x42,
    0x3e, 0xbd, 0x0d, 0xec, 0x47, 0xbd, 0xd9, 0x23, 0x29, 0xbd,
    0x2d, 0x9d, 0xa9, 0x3c, 0xc7, 0xa6, 0x02, 0x3d, 0x94, 0x45,
    0x9f, 0xbb, 0x2d, 0xe3, 0xb7, 0xbc, 0x90, 0x1c, 0x68, 0xbd,
    0x48, 0x78, 0x1d, 0x3c, 0xbb, 0x2a, 0x10, 0x3d, 0xa3, 0x84,
    0x08, 0x3d, 0x5a, 0x0e, 0x9a, 0x3c, 0x6c, 0x07, 0x18, 0x3b,
    0xa1, 0xea, 0xda, 0xbc, 0xc9, 0x6d, 0x9b, 0xbc, 0xfc, 0xd2,
    0x22, 0xbd, 0x2a, 0xfd, 0x1a, 0xbd, 0x01, 0x2c, 0x99, 0x3c,
    0xfb, 0x2e, 0x25, 0x3c, 0x29, 0x1a, 0x7e, 0x3c, 0xe6, 0x0c,
    0x91, 0xbc, 0xf0, 0xce, 0xde, 0x3c, 0x8a, 0x86, 0x22, 0xbd,
    0x18, 0x79, 0xf6, 0xbc, 0xe3, 0x19, 0x2a, 0xbd, 0x18, 0x3e,
    0x1d, 0x3d, 0xbe, 0xe1, 0xee, 0xbc, 0xa1, 0x55, 0x3a, 0xbd,
    0xc2, 0x57, 0x41, 0xbc, 0xd8, 0xa8, 0x42, 0xbd, 0xdf, 0x95,
    0xb8, 0x3c, 0xe6, 0x95, 0x19, 0xbd, 0xb3, 0x59, 0xd2, 0xbc,
    0xdd, 0xf6, 0xc1, 0xba, 0x09, 0xb0, 0xb8, 0x3c, 0x22, 0x15,
    0xef, 0x3c, 0xc6, 0x35, 0xab, 0x3c, 0x84, 0x34, 0x0b, 0xbd,
    0x37, 0x3c, 0x58, 0xbc, 0xda, 0xa5, 0x2b, 0xbd, 0x27, 0xc9,
    0x3e, 0xbd, 0x39, 0xaa, 0x35, 0x39, 0xdc, 0x8d, 0x6a, 0xbd,
    0x03, 0x15, 0x36, 0xbd, 0xca, 0x61, 0x67, 0xbd, 0x3b, 0x8b,
    0x95, 0x3c, 0x78, 0xa5, 0x44, 0x3c, 0x54, 0xb7, 0x18, 0xb9,
    0x91, 0x2c, 0xac, 0x3b, 0x56, 0x62, 0x5b, 0xbd, 0xa4, 0xad,
    0xe6, 0xbc, 0xfd, 0x5f, 0xea, 0xbc, 0xb8, 0xa1, 0x24, 0xbd,
    0x4f, 0xc8, 0xac, 0x3c, 0x0f, 0x8f, 0x10, 0xbd, 0x42, 0xbe,
    0x9c, 0xbc, 0x61, 0x2a, 0x2b, 0xbd, 0xaa, 0xae, 0x13, 0x3d,
    0x89, 0xd5, 0xb6, 0xbc, 0x93, 0xa0, 0x78, 0xbd, 0x6b, 0x1c,
    0x0c, 0x3c, 0x10, 0x34, 0xf2, 0x3c, 0xfd, 0x56, 0xe1, 0xbc,
    0xbc, 0x04, 0x43, 0xbd, 0x51, 0x10, 0x37, 0x3b, 0xf7, 0x3a,
    0x95, 0x3c, 0xaf, 0x7e, 0xb6, 0x3a, 0x32, 0x6c, 0x48, 0xbd,
    0x17, 0x7f, 0xe2, 0x3c, 0xb8, 0xf1, 0x0c, 0x3c, 0x31, 0x72,
    0xa0, 0x3c, 0xe6, 0x4a, 0xd4, 0xbc, 0x7f, 0xd4, 0x17, 0x3d,
    0xb3, 0x79, 0xdb, 0x3b, 0x75, 0xb2, 0xeb, 0xbc, 0x2c, 0xbd,
    0x93, 0x3c, 0xd1, 0xee, 0xf9, 0x3b, 0xf2, 0x5f, 0xd3, 0x3b,
    0x3a, 0xca, 0xb1, 0x3b, 0x6d, 0xd8, 0x5a, 0xbd, 0x98, 0xcb,
    0x2a, 0xbd, 0xa8, 0x28, 0x95, 0x3c, 0x60, 0x0f, 0x42, 0x3c,
    0xa5, 0xb1, 0x23, 0x3c, 0xff, 0xcc, 0xa5, 0xbc, 0x5e, 0x82,
    0x46, 0xbd, 0x06, 0xf1, 0x64, 0xbd, 0xef, 0xc5, 0x6c, 0x3c,
    0xc7, 0xb2, 0x52, 0xbc, 0xff, 0x84, 0x2e, 0x3c, 0x2b, 0x07,
    0x65, 0xbc, 0x46, 0xaf, 0x9e, 0x3a, 0x18, 0x40, 0x0d, 0x3b,
    0x0f, 0x32, 0xe5, 0xba, 0x4f, 0xfe, 0x16, 0x3c, 0x3e, 0x58,
    0xc9, 0xbb, 0x2f, 0xcf, 0xa1, 0xba, 0xdc, 0xdb, 0x12, 0xbd,
    0xb6, 0xe4, 0x5b, 0xbd, 0x0d, 0x2e, 0x6d, 0xbd, 0x52, 0xa9,
    0x2a, 0xbd, 0x6e, 0x26, 0x52, 0xb9, 0x10, 0xeb, 0x36, 0x3c,
    0x32, 0x8b, 0xbc, 0xbc, 0x97, 0xa8, 0x50, 0xbd, 0x94, 0xa2,
    0xb0, 0x3c, 0x19, 0xd0, 0x24, 0xbd, 0x64, 0x3d, 0xff, 0x3c,
    0x9e, 0x74, 0xd1, 0xbb, 0x6c, 0xae, 0x43, 0xbc, 0xd2, 0xbd,
    0x73, 0xbd, 0xd3, 0x94, 0x02, 0x3d, 0x39, 0x99, 0x2b, 0xbd,
    0x06, 0xbf, 0x07, 0x3c, 0x33, 0x1b, 0x11, 0x3d, 0xdf, 0xed,
    0xc6, 0xbc, 0x41, 0x87, 0x8c, 0xbb, 0x44, 0x99, 0x24, 0x3b,
    0x01, 0xc4, 0x28, 0xbc, 0x12, 0xf4, 0x62, 0xbd, 0xf3, 0xe4,
    0x95, 0x3c, 0xc2, 0x81, 0x38, 0xbd, 0xdb, 0x0e, 0x12, 0xbd,
    0x5e, 0x8c, 0x0b, 0x3c, 0xc3, 0xb2, 0x00, 0xbd, 0xea, 0x36,
    0xcd, 0x3a, 0x9d, 0xd1, 0xe5, 0x3b, 0xec, 0xd9, 0xf1, 0xbc,
    0xae, 0x1b, 0xbd, 0xbc, 0x48, 0x71, 0x08, 0x3d, 0x64, 0x07,
    0xa6, 0x3c, 0x26, 0x70, 0x40, 0xbd, 0xa7, 0x08, 0x1b, 0x3c,
    0x04, 0x84, 0x1f, 0xbc, 0xfa, 0xb4, 0x1d, 0xbd, 0xef, 0x3d,
    0x1c, 0x3d, 0xbb, 0x47, 0x77, 0xbd, 0x96, 0xe8, 0xbf, 0xbc,
    0xb5, 0x0a, 0x16, 0xbd, 0x1f, 0x77, 0x58, 0xbc, 0x26, 0xda,
    0xc8, 0xbc, 0xbb, 0x3a, 0xac, 0xba, 0x77, 0x60, 0x1b, 0x3d,
    0x35, 0x66, 0xcb, 0xbc, 0x20, 0x35, 0x71, 0xbd, 0x3e, 0x6b,
    0xea, 0xbc, 0x64, 0x39, 0x7b, 0x3c, 0xd6, 0x73, 0xf9, 0xbc,
    0xb5, 0x40, 0x01, 0xbd, 0x7d, 0x04, 0x75, 0xbd, 0x91, 0xd9,
    0x38, 0xbd, 0x7d, 0xfc, 0x49, 0xbc, 0xec, 0x57, 0x16, 0x3d,
    0xef, 0xdb, 0xeb, 0xbb, 0x9b, 0x92, 0x73, 0x3c, 0x1e, 0xf2,
    0xe2, 0x3b, 0xba, 0xd8, 0xbd, 0xbc, 0x40, 0x9d, 0x4f, 0x3b,
    0x15, 0x51, 0x2f, 0xbd, 0x9b, 0x5f, 0x2b, 0x3c, 0x74, 0x29,
    0x29, 0xbd, 0x4d, 0xbb, 0x12, 0xbd, 0x39, 0x67, 0xdf, 0x39,
    0xb6, 0xf4, 0x84, 0xba, 0xb6, 0xd6, 0x03, 0x3d, 0xd9, 0x22,
    0xcf, 0xbc, 0xcf, 0xcf, 0x06, 0xbd, 0x7e, 0xdc, 0x1a, 0xbd,
    0x8d, 0xb1, 0x16, 0x3d, 0x42, 0x75, 0xaa, 0x3c, 0xd2, 0x0a,
    0xdb, 0x3c, 0xcd, 0x1c, 0xb3, 0x3c, 0xb8, 0x9b, 0xcc, 0xbc,
    0x14, 0xef, 0x07, 0xbd, 0x10, 0x61, 0xce, 0x3b, 0x41, 0x0a,
    0x98, 0x3c, 0x8c, 0x79, 0x50, 0xbd, 0x54, 0x59, 0x19, 0x3d,
    0x91, 0xab, 0xa8, 0x3c, 0xef, 0x5d, 0xce, 0xbc, 0x10, 0xbb,
    0x9d, 0xbc, 0x50, 0x74, 0xf8, 0xbc, 0x0b, 0xff, 0xbb, 0x3c,
    0x8a, 0x2a, 0x80, 0xbc, 0xfc, 0xa0, 0xa7, 0x3c, 0xc5, 0x29,
    0x16, 0x3d, 0xab, 0x90, 0xce, 0x3c, 0xa4, 0x7b, 0x7f, 0x3c,
    0x3a, 0x5b, 0x6b, 0xbd, 0xc0, 0x82, 0xe1, 0x3c, 0x6b, 0xa3,
    0xe0, 0x3c, 0x87, 0x1e, 0xde, 0xbb, 0x77, 0x7e, 0xad, 0xbc,
    0x14, 0x13, 0x6e, 0xbb, 0xd5, 0x1f, 0x17, 0xbd, 0x81, 0xd5,
    0x01, 0x3d, 0x85, 0xe6, 0xd7, 0x3c, 0x28, 0x83, 0x01, 0xbd,
    0xae, 0xc0, 0x26, 0xbd, 0xe2, 0x13, 0x67, 0xbd, 0x99, 0x4d,
    0x4d, 0x3c, 0xde, 0x53, 0x56, 0xbd, 0x0f, 0x6f, 0x29, 0xbd,
    0xfa, 0x35, 0xd7, 0xbb, 0x4f, 0xd6, 0x10, 0xbb, 0x00, 0xa9,
    0xfa, 0xbc, 0x29, 0x97, 0xdb, 0x3c, 0x5c, 0xd3, 0x39, 0xbd,
    0xec, 0x50, 0x49, 0xbd, 0xa5, 0x5c, 0x54, 0xbd, 0xba, 0x7b,
    0x19, 0x3d, 0x62, 0xcd, 0x46, 0xbd, 0x2e, 0xa7, 0x0e, 0xbd,
    0xd8, 0x64, 0x6b, 0xbd, 0x0e, 0x47, 0x13, 0xbd, 0x60, 0x18,
    0x02, 0x3d, 0xc7, 0xad, 0x00, 0x3d, 0xcb, 0xec, 0x19, 0x3d,
    0x73, 0xe5, 0x00, 0xbd, 0x6d, 0xd9, 0xd0, 0x3c, 0x51, 0x46,
    0xa2, 0x3a, 0x8e, 0xbc, 0xdf, 0xbc, 0x46, 0xd5, 0x5b, 0xbb,
    0xf3, 0x12, 0x46, 0xbd, 0x82, 0x91, 0x46, 0x3c, 0x97, 0x6b,
    0x3c, 0xbb, 0x64, 0x39, 0x1f, 0xbc, 0x34, 0x1f, 0x9d, 0xbc,
    0xcf, 0x61, 0xbc, 0xbc, 0xe7, 0x13, 0x15, 0xbc, 0x41, 0x27,
    0x05, 0xbc, 0x50, 0x76, 0x1e, 0x3d, 0x8a, 0xf3, 0xf3, 0x3c,
    0xbd, 0xf2, 0xb9, 0xbc, 0x42, 0xa0, 0xa8, 0xbc, 0x28, 0x54,
    0xba, 0xbc, 0x5f, 0x92, 0x4d, 0xbc, 0xde, 0x91, 0x31, 0xbc,
    0x0b, 0x58, 0x55, 0xbd, 0xa2, 0x75, 0x0f, 0x3d, 0x81, 0x36,
    0xfa, 0x3c, 0x81, 0xdc, 0x5b, 0xbd, 0x19, 0x8d, 0x14, 0xbb,
    0xe5, 0x4d, 0x51, 0xbb, 0xd2, 0x60, 0xef, 0x3c, 0x2e, 0xd6,
    0xb6, 0x3c, 0xf0, 0xf4, 0xf5, 0x3c, 0x7b, 0x59, 0x7d, 0xbd,
    0x66, 0x85, 0x0a, 0x3d, 0x72, 0x6c, 0x94, 0xbc, 0xf3, 0x4d,
    0x13, 0x3c, 0x40, 0xbc, 0x03, 0xbd, 0x41, 0x14, 0x1b, 0x3d,
    0x0f, 0x94, 0x3a, 0xbc, 0xf7, 0x56, 0x0f, 0x3d, 0x64, 0x5d,
    0x1f, 0xbd, 0x29, 0x40, 0x0b, 0xbd, 0xa3, 0x52, 0x6b, 0xbc,
    0x5c, 0xa0, 0x48, 0xbd, 0x27, 0xc1, 0x0b, 0x3c, 0x03, 0xb5,
    0x3c, 0x3c, 0x31, 0xac, 0xe6, 0xbc, 0x9d, 0xaa, 0x63, 0x3c,
    0x67, 0xb5, 0x1a, 0xbd, 0xed, 0xef, 0x31, 0x3c, 0xee, 0x0c,
    0x41, 0x3c, 0x8b, 0x83, 0x40, 0xbd, 0x9d, 0x28, 0x1b, 0xbd,
    0x74, 0x11, 0x60, 0xbd, 0x9f, 0xd2, 0x78, 0xbd, 0x68, 0xeb,
    0x1b, 0xbc, 0x45, 0x44, 0x5f, 0xbd, 0x8c, 0xc8, 0xfa, 0x3c,
    0xd9, 0x4a, 0x72, 0xbd, 0x51, 0x1f, 0x0f, 0x3d, 0xb1, 0xf7,
    0x22, 0x3c, 0x90, 0xbc, 0x55, 0xbd, 0xe3, 0xe2, 0xd6, 0x3b,
    0x98, 0x98, 0x73, 0xbd, 0xd8, 0xda, 0xc9, 0x3b, 0xc5, 0x4c,
    0xd9, 0xbc, 0x76, 0x5e, 0x42, 0xbd, 0x29, 0x4a, 0x46, 0xbd,
    0x66, 0xb9, 0x4f, 0xbd, 0x72, 0xca, 0xb4, 0xbc, 0xf1, 0xa0,
    0x97, 0xbc, 0xbf, 0x16, 0x5c, 0x3b, 0x29, 0x32, 0x72, 0xbd,
    0x23, 0x1c, 0x33, 0xbd, 0xad, 0x9c, 0x0c, 0xbd, 0x26, 0xef,
    0xfd, 0xbc, 0x8f, 0x7b, 0x0a, 0xbd, 0xfa, 0x14, 0x0d, 0xbd,
    0x9b, 0x84, 0xc3, 0x3c, 0x75, 0x24, 0x02, 0xbc, 0x3d, 0xe8,
    0x8b, 0x3c, 0x34, 0x31, 0x5d, 0xbc, 0xc4, 0x10, 0x7d, 0x3c,
    0x52, 0x03, 0xe7, 0x3c, 0x15, 0x4f, 0x8c, 0x37, 0xde, 0x80,
    0x37, 0x3b, 0xed, 0xe9, 0xa2, 0x3c, 0xf2, 0x85, 0x92, 0x3b,
    0x88, 0xbc, 0x06, 0xbd, 0xd3, 0x15, 0x4a, 0x3c, 0x55, 0x11,
    0xd4, 0x3c, 0x0b, 0xca, 0x3f, 0x3c, 0xe7, 0x73, 0x0a, 0x3d,
    0xe0, 0x94, 0x5a, 0xbd, 0xc6, 0x13, 0x65, 0xbd, 0xcd, 0xc2,
    0x25, 0xbd, 0xc2, 0x2d, 0xe5, 0x3c, 0x79, 0x09, 0xb6, 0x3b,
    0xc9, 0xf5, 0x08, 0xba, 0x25, 0xab, 0x3c, 0x3c, 0xbc, 0x96,
    0xc5, 0x3c, 0xa8, 0x35, 0x75, 0xbc, 0xf3, 0xe1, 0xdb, 0x3b,
    0x62, 0xe5, 0x5f, 0xbd, 0xa0, 0xc8, 0x86, 0x3c, 0x44, 0xab,
    0x01, 0x3d, 0x6c, 0x7e, 0x44, 0xbd, 0x50, 0x81, 0x86, 0x3b,
    0x1a, 0xf4, 0x58, 0xbd, 0x20, 0xac, 0x32, 0xbd, 0x87, 0xde,
    0x6f, 0x3b, 0xc1, 0x9e, 0x0c, 0xbd, 0x78, 0x55, 0xf6, 0x3c,
    0xcf, 0x51, 0x19, 0x3d, 0xa1, 0xf0, 0x00, 0x3d, 0xea, 0xb6,
    0xa3, 0x3c, 0xd4, 0x51, 0x66, 0xbc, 0x43, 0x18, 0xbe, 0x3c,
    0xfb, 0xc7, 0x9f, 0xbb, 0xf4, 0xc5, 0x83, 0xbc, 0x1d, 0x2b,
    0x35, 0xbd, 0x8e, 0x29, 0x41, 0x3b, 0x4b, 0x92, 0x43, 0xbd,
    0xef, 0xb6, 0xd5, 0xbb, 0x94, 0x44, 0x01, 0x3d, 0xfd, 0x7c,
    0xbc, 0xba, 0x97, 0x88, 0xf7, 0xbc, 0xc9, 0x41, 0x5c, 0xbc,
    0xf6, 0x7a, 0x3b, 0xbd, 0x10, 0x29, 0x10, 0xbd, 0x10, 0xf4,
    0xa8, 0xbc, 0x78, 0x81, 0x11, 0x3c, 0xe6, 0x64, 0x3f, 0x3c,
    0x18, 0x9a, 0x0e, 0x3c, 0x70, 0xdc, 0xba, 0xbc, 0x0a, 0x8b,
    0x80, 0x3b, 0x34, 0x85, 0x1c, 0x3d, 0x47, 0x2e, 0x3c, 0xbc,
    0x7f, 0xf6, 0x14, 0x3d, 0x08, 0x05, 0x97, 0xbc, 0x20, 0x63,
    0x09, 0xbd, 0xa0, 0xd3, 0x9b, 0xbb, 0xb8, 0x26, 0x97, 0x3c,
    0x57, 0xfc, 0xd5, 0xbc, 0x12, 0xb7, 0xad, 0x3b, 0x82, 0x61,
    0xa9, 0xbc, 0x9a, 0xcf, 0x0d, 0xbd, 0xc2, 0xcb, 0xf6, 0xbc,
    0x56, 0x30, 0xfc, 0x3c, 0x17, 0x34, 0xfe, 0xbc, 0x52, 0xd9,
    0x98, 0xba, 0x0c, 0x75, 0x14, 0x38, 0x11, 0x44, 0xfd, 0xbc,
    0xe7, 0x14, 0xe5, 0x3c, 0x6b, 0x54, 0x66, 0xbc, 0x1b, 0xb6,
    0xb8, 0xbc, 0x93, 0xb2, 0xf8, 0x3c, 0x84, 0x63, 0x59, 0xbd,
    0xd9, 0xa1, 0xc4, 0x3c, 0x88, 0x72, 0x3e, 0x3c, 0x1a, 0xca,
    0x0c, 0x3c, 0x6f, 0x03, 0x10, 0x3d, 0xf9, 0xbd, 0x0c, 0xbd,
    0xce, 0xff, 0x92, 0xbb, 0x52, 0xc0, 0x9c, 0xbb, 0xc6, 0xf5,
    0x60, 0xbd, 0x89, 0xf5, 0xdd, 0x3c, 0x34, 0x3a, 0x51, 0xbb,
    0x0d, 0x71, 0x50, 0xbd, 0x4a, 0x5c, 0x0f, 0x3c, 0xe7, 0xa6,
    0x81, 0xbc, 0x8e, 0xce, 0x25, 0xbd, 0x45, 0xdd, 0xea, 0xbc,
    0x3c, 0x2c, 0xe6, 0x3c, 0x15, 0x6f, 0xf1, 0x3c, 0xa9, 0x0e,
    0x28, 0xbd, 0x00, 0x9f, 0x20, 0xbd, 0xf7, 0x58, 0xcd, 0x3c,
    0xde, 0x8f, 0xfd, 0x3c, 0xde, 0x93, 0x2e, 0xbd, 0xea, 0xba,
    0xc4, 0xbc, 0xc3, 0xc6, 0x67, 0xbd, 0xdf, 0x9f, 0x8d, 0x39,
    0x6b, 0x1f, 0xa5, 0xbc, 0xf2, 0xde, 0xba, 0xbc, 0x28, 0x69,
    0x8d, 0x3c, 0x29, 0xa1, 0xc7, 0xbc, 0xf6, 0xd6, 0xc3, 0xba,
    0xfe, 0x3c, 0x42, 0x3c, 0xb9, 0x36, 0x85, 0x3d, 0xfc, 0xa4,
    0x10, 0x3e, 0xf7, 0x06, 0xf5, 0x3d, 0x5a, 0xa7, 0x05, 0x3e,
    0xf3, 0x3b, 0xd0, 0x3d, 0x49, 0x5c, 0xfe, 0x3d, 0xec, 0x11,
    0x28, 0x3e, 0x2c, 0x37, 0x21, 0x3e, 0xf2, 0x86, 0x28, 0x3e,
    0xf9, 0x0a, 0x1a, 0x3e, 0x53, 0x36, 0x19, 0x3e, 0x47, 0xce,
    0x7b, 0x3e, 0x32, 0xf8, 0x96, 0x3e, 0x92, 0x36, 0x56, 0x3e,
    0x25, 0xe2, 0x5e, 0x3e, 0x2d, 0x19, 0x07, 0x3e, 0xae, 0xb7,
    0xf8, 0x3d, 0x57, 0x4a, 0x0c, 0x3e, 0x57, 0x16, 0xb7, 0x3d,
    0x11, 0x63, 0x07, 0x3e, 0xb1, 0x25, 0xfb, 0x3d, 0xf7, 0xb7,
    0x1e, 0x3e, 0xa5, 0xb1, 0x0e, 0x3e, 0x90, 0xac, 0xe2, 0x3d,
    0x0e, 0x25, 0x62, 0x3e, 0x14, 0x2c, 0x0a, 0x3e, 0x50, 0x22,
    0x23, 0x3e, 0x9c, 0x87, 0x25, 0x3e, 0x83, 0x99, 0x19, 0x3e,
    0xe5, 0x6d, 0x47, 0x3e, 0xde, 0x39, 0x3e, 0x3e, 0x1d, 0xa1,
    0x5b, 0x3e, 0x77, 0xb2, 0x7c, 0x3e, 0x77, 0xbe, 0xaa, 0x3e,
    0xb4, 0x85, 0xb5, 0x3e, 0xa6, 0x54, 0xdb, 0x3e, 0xe2, 0xce,
    0xd8, 0x3e, 0xe5, 0x0a, 0xf4, 0x3e, 0x45, 0x00, 0x09, 0x3f,
    0x75, 0x75, 0x05, 0x3f, 0x4e, 0x97, 0xde, 0x3e, 0xd8, 0x69,
    0xd8, 0x3e, 0xf0, 0xbb, 0xc6, 0x3e, 0x70, 0x4a, 0xac, 0x3e,
    0x62, 0x8e, 0xb6, 0x3e, 0x17, 0xf6, 0xf6, 0x3e, 0x66, 0xec,
    0x10, 0x3f, 0x61, 0x64, 0xd7, 0x3e, 0x40, 0x67, 0x90, 0x3e,
    0x76, 0x72, 0x9d, 0x3e, 0xb2, 0xc2, 0x5e, 0x3e, 0xea, 0x42,
    0x13, 0x3e, 0x2f, 0x0d, 0xb4, 0x3d, 0x89, 0x2f, 0xc8, 0x3d,
    0x68, 0x86, 0xff, 0x3d, 0x8b, 0xc5, 0xf0, 0x3d, 0x6e, 0x81,
    0x00, 0x3e, 0x5a, 0xbc, 0xde, 0x3d, 0x26, 0x31, 0x08, 0x3e,
    0xf3, 0x58, 0x48, 0x3e, 0x7b, 0x7a, 0x20, 0x3e, 0x61, 0xe1,
    0x53, 0x3e, 0xe5, 0x39, 0x96, 0x3e, 0x71, 0xff, 0x74, 0x3e,
    0x6c, 0x9b, 0x94, 0x3e, 0xf9, 0xd0, 0x20, 0x3e, 0xa5, 0x63,
    0x11, 0x3e, 0x38, 0xb6, 0x02, 0x3d, 0xb8, 0x45, 0x6c, 0x39,
    0x85, 0x7d, 0xda, 0xbb, 0x0f, 0x43, 0xaf, 0x3d, 0x15, 0xb2,
    0x50, 0x3d, 0xb7, 0x44, 0x55, 0x3d, 0xd9, 0xe6, 0x62, 0xbb,
    0xb2, 0xff, 0xd7, 0x3d, 0xbd, 0xef, 0x50, 0x3d, 0xf6, 0xae,
    0x3d, 0x3d, 0xd9, 0x87, 0x70, 0x3d, 0x7c, 0x79, 0xac, 0x3d,
    0xcb, 0x18, 0xa5, 0x3d, 0x86, 0x2f, 0x35, 0x3d, 0x5c, 0xe0,
    0xa6, 0x3c, 0xa1, 0x5c, 0xb6, 0x3d, 0x94, 0x36, 0x5c, 0x3d,
    0xf5, 0x06, 0x82, 0xbc, 0x9b, 0xfc, 0xb4, 0x3c, 0xac, 0x06,
    0x04, 0xbd, 0xd4, 0x54, 0x86, 0xbd, 0xe7, 0x3f, 0xf9, 0xba,
    0x47, 0xd6, 0x2e, 0xbd, 0x24, 0xb4, 0xf7, 0x3c, 0x19, 0x44,
    0xdb, 0xbc, 0x54, 0x56, 0x8f, 0xbd, 0x6c, 0x7e, 0x42, 0xbc,
    0xaf, 0x39, 0x7f, 0xbd, 0x1a, 0x03, 0x9b, 0xbd, 0x40, 0x2f,
    0x7f, 0xbd, 0x27, 0x5f, 0x87, 0x3c, 0x97, 0xab, 0x1d, 0xbc,
    0xbf, 0xee, 0xda, 0xbd, 0x2d, 0x80, 0x7a, 0xbd, 0x43, 0x58,
    0xeb, 0xbb, 0x47, 0xc7, 0xa2, 0xbd, 0xfb, 0x39, 0x5f, 0xbd,
    0x34, 0x4b, 0x78, 0xbd, 0x0a, 0xde, 0x24, 0xbd, 0x6a, 0xdb,
    0x3c, 0xbc, 0x61, 0x25, 0x15, 0xbd, 0x2e, 0xe5, 0xc3, 0xbd,
    0x99, 0xcb, 0x96, 0xbc, 0xf3, 0x20, 0x20, 0xbd, 0xf6, 0xc8,
    0x84, 0xbd, 0x60, 0x43, 0x90, 0xbd, 0xc1, 0x12, 0x48, 0xbd,
    0x10, 0x5a, 0x53, 0xbd, 0x6c, 0x3a, 0x8f, 0xbd, 0xb9, 0x84,
    0x81, 0xbc, 0xcc, 0xff, 0xdf, 0xbd, 0x82, 0x78, 0xbc, 0xbd,
    0x8b, 0x7e, 0x90, 0xbd, 0xa0, 0x9f, 0xcb, 0xbc, 0xd0, 0x11,
    0x63, 0xbd, 0xd2, 0xe1, 0xd7, 0xbd, 0x27, 0x07, 0x18, 0xbd,
    0xf9, 0x85, 0xc3, 0xbd, 0xf2, 0xd9, 0x85, 0xbd, 0x7f, 0xd8,
    0x83, 0xbd, 0xe3, 0xbc, 0xe9, 0xbc, 0x12, 0x18, 0x7c, 0xbd,
    0x80, 0x2d, 0xdf, 0xbc, 0x31, 0xd6, 0xbe, 0xbb, 0x30, 0x4a,
    0xbc, 0xbd, 0x8d, 0x29, 0x1b, 0xbd, 0x94, 0x76, 0x0b, 0xbc,
    0xee, 0xf3, 0x3c, 0xbd, 0x8e, 0xd3, 0xa0, 0xbd, 0x35, 0x6a,
    0x9a, 0xbd, 0x5f, 0x17, 0x6c, 0xbd, 0x9d, 0xff, 0x15, 0xbb,
    0x9a, 0xf0, 0x50, 0xbd, 0x48, 0x1f, 0x63, 0xbd, 0x8a, 0x9b,
    0x37, 0xbb, 0x86, 0x9f, 0xb6, 0x3c, 0x97, 0x1a, 0xd0, 0xba,
    0x04, 0xc1, 0x2e, 0xbd, 0x17, 0x60, 0x76, 0x3c, 0x54, 0xf4,
    0x30, 0xbd, 0x62, 0xa8, 0xe4, 0xbc, 0x72, 0x73, 0xa2, 0xbc,
    0x53, 0x26, 0x6c, 0xbd, 0x64, 0x12, 0x8e, 0xbc, 0x89, 0xed,
    0x88, 0xbd, 0xe3, 0x33, 0x68, 0xbd, 0x0e, 0x2b, 0x24, 0xbd,
    0x47, 0xc8, 0xfd, 0xbd, 0x6e, 0x72, 0xa4, 0xbd, 0xb2, 0xbb,
    0x42, 0xbd, 0xb6, 0xc5, 0x03, 0xbe, 0x72, 0x5d, 0x0b, 0xbe,
    0x0a, 0x78, 0xc2, 0xbd, 0x83, 0xbb, 0x84, 0xbd, 0xc0, 0x6e,
    0x0a, 0xbd, 0x0c, 0xe0, 0x1f, 0xbd, 0x6d, 0x12, 0x71, 0xbd,
    0x6f, 0x83, 0xd5, 0xbb, 0x2a, 0x84, 0x54, 0xbd, 0x04, 0x16,
    0xdf, 0xbc, 0x3f, 0x85, 0xc1, 0xbd, 0x78, 0x9a, 0x55, 0xbd,
    0x62, 0x26, 0xb9, 0xbd, 0xcb, 0xdd, 0x08, 0xbd, 0xe5, 0x29,
    0x47, 0xbd, 0x6e, 0x0d, 0xfa, 0xbc, 0x09, 0x37, 0x98, 0xbd,
    0x92, 0x35, 0x1d, 0xbd, 0xb4, 0xcb, 0x88, 0xbd, 0x30, 0xdd,
    0x0d, 0xbd, 0x76, 0x8d, 0xa3, 0xbd, 0xeb, 0xa5, 0xc3, 0xbd,
    0x35, 0xd1, 0x93, 0xbd, 0xc8, 0xad, 0xb9, 0xbd, 0x41, 0x3d,
    0x3d, 0xbd, 0x56, 0x7b, 0x5e, 0xbc, 0xca, 0xdb, 0xa0, 0xbc,
    0xd7, 0x9c, 0x63, 0xbd, 0xf2, 0x94, 0xd7, 0xbd, 0x88, 0x66,
    0x8a, 0xbd, 0x9c, 0x22, 0x4c, 0xbd, 0xcc, 0x30, 0xe8, 0xbd,
    0xad, 0x60, 0x93, 0xbd, 0x24, 0x75, 0xe8, 0xbd, 0x3c, 0xae,
    0xfd, 0xbd, 0x15, 0xf5, 0x56, 0xbd, 0xe7, 0x10, 0xf0, 0xbd,
    0x0f, 0x98, 0xf6, 0xbd, 0x3d, 0xee, 0x0b, 0xbe, 0xa5, 0x47,
    0xa8, 0xbd, 0x38, 0x91, 0x6c, 0xbd, 0x9c, 0x38, 0x9a, 0xbd,
    0x89, 0xad, 0xd4, 0xbd, 0xf6, 0x31, 0x1a, 0xbd, 0x98, 0xc9,
    0xb3, 0xbc, 0xdf, 0xfa, 0xaf, 0xbd, 0xf7, 0x73, 0x9e, 0xbd,
    0x89, 0x95, 0x5f, 0xbd, 0x53, 0x92, 0x39, 0xbd, 0x54, 0x92,
    0x8e, 0xbd, 0x9d, 0xdd, 0xaf, 0xbd, 0x6e, 0x78, 0xd3, 0xbd,
    0xf0, 0x3c, 0x01, 0xbe, 0x8b, 0xcf, 0x67, 0xbd, 0xe9, 0x0d,
    0x96, 0xbd, 0x64, 0x50, 0xba, 0xbd, 0xad, 0x14, 0xb3, 0xbd,
    0x35, 0x86, 0x86, 0xbd, 0x9a, 0xad, 0x0e, 0xbd, 0x57, 0x37,
    0xe5, 0xbd, 0x35, 0xd9, 0xcc, 0xbd, 0x12, 0xd2, 0xb7, 0xbd,
    0x6a, 0x9e, 0x94, 0xbd, 0xdc, 0x79, 0xa2, 0xbd, 0xe6, 0x30,
    0x10, 0xbd, 0xc9, 0x81, 0xc9, 0xbd, 0x3a, 0xc1, 0x89, 0xbd,
    0xd3, 0xb0, 0xfb, 0xbd, 0xe1, 0x32, 0x82, 0xbc, 0x4a, 0x78,
    0x6e, 0xbd, 0x49, 0x84, 0x41, 0xbc, 0x3c, 0x02, 0x78, 0xbc,
    0x41, 0x80, 0xc8, 0xbd, 0x2a, 0xea, 0x3b, 0xbd, 0x24, 0x9e,
    0x3f, 0xbd, 0x7e, 0xd1, 0x0d, 0xbe, 0x24, 0xda, 0x16, 0xbe,
    0x8c, 0x5e, 0x03, 0xbe, 0x66, 0xb9, 0x7c, 0xbd, 0xfe, 0xb4,
    0x96, 0xbd, 0xbb, 0xd4, 0x80, 0xbb, 0x29, 0xee, 0x89, 0xbd,
    0x86, 0xe7, 0xb1, 0xbd, 0x92, 0xf8, 0xc6, 0xbd, 0x05, 0x85,
    0x0c, 0xbe, 0xdb, 0xe7, 0x46, 0xbd, 0xdd, 0x5f, 0xd5, 0xbc,
    0x19, 0x5f, 0xd9, 0xbd, 0xb5, 0x50, 0x56, 0xbd, 0x5c, 0x2d,
    0x95, 0xbd, 0x53, 0x43, 0x05, 0xbe, 0x5e, 0xfb, 0x41, 0xbd,
    0x3a, 0xce, 0x2e, 0xbc, 0xc5, 0x2c, 0x46, 0x3c, 0xb0, 0xf0,
    0x9b, 0xbd, 0xe4, 0x68, 0x30, 0xbe, 0xbf, 0x1f, 0x0d, 0xbe,
    0x16, 0x23, 0xb7, 0xbd, 0x98, 0x01, 0x64, 0xbd, 0x7e, 0x05,
    0x13, 0xbd, 0xa0, 0xa4, 0x7b, 0xbd, 0x20, 0xd1, 0xec, 0xbd,
    0xe4, 0x25, 0x9f, 0xbd, 0x3f, 0xc9, 0xd8, 0xbd, 0x25, 0xc8,
    0xc9, 0xbd, 0xf6, 0x8b, 0x3f, 0xbe, 0xf1, 0x76, 0x4b, 0xbe,
    0x5e, 0x73, 0xd7, 0xbd, 0xa1, 0x42, 0xce, 0xbc, 0x69, 0xce,
    0xc6, 0xbb, 0x93, 0x18, 0xdc, 0xbd, 0xe4, 0x33, 0xff, 0xbd,
    0x48, 0x83, 0x57, 0xbc, 0x48, 0xcf, 0xbd, 0x3b, 0xe4, 0x96,
    0x91, 0xbd, 0xc0, 0x62, 0x9a, 0xbd, 0x6e, 0xaa, 0x02, 0xbe,
    0x32, 0xac, 0x1a, 0xbe, 0xa3, 0x50, 0x96, 0xbd, 0xff, 0xaf,
    0x95, 0xbc, 0x26, 0x5c, 0x4e, 0xbd, 0x2d, 0x7d, 0x77, 0xbd,
    0xf8, 0xbf, 0x86, 0x3c, 0x49, 0x32, 0x65, 0xbb, 0xed, 0xd1,
    0xff, 0xbc, 0xc2, 0x0d, 0x0a, 0xbd, 0x81, 0xc4, 0x18, 0xbe,
    0xf2, 0x3c, 0x0b, 0xbe, 0x96, 0x96, 0x9d, 0xbd, 0xa3, 0x45,
    0x7e, 0x3c, 0x8f, 0xe3, 0xe8, 0xbd, 0xb0, 0xfb, 0xde, 0xbd,
    0x56, 0xcf, 0x4d, 0xbd, 0x4e, 0x61, 0xab, 0xba, 0xab, 0x0e,
    0x61, 0xbd, 0x37, 0x19, 0x12, 0xbe, 0x76, 0x0f, 0x9c, 0xbc,
    0x23, 0x0d, 0x00, 0xbe, 0xe1, 0x29, 0x13, 0xbe, 0x6c, 0xce,
    0xdc, 0xbd, 0xd5, 0xad, 0xb2, 0xbd, 0x55, 0x81, 0x09, 0xbe,
    0x98, 0xe9, 0xf4, 0xbd, 0xeb, 0x5d, 0x3a, 0xbd, 0x2b, 0x12,
    0xec, 0xbc, 0xca, 0x4f, 0x56, 0xbd, 0x47, 0xcc, 0xb1, 0xbd,
    0xbb, 0xb3, 0x2b, 0xbe, 0x28, 0xdb, 0x0e, 0xbe, 0x57, 0xb1,
    0x01, 0xbe, 0xe8, 0xe9, 0xfc, 0xbd, 0x50, 0xfe, 0x90, 0xbd,
    0x61, 0xf6, 0x4b, 0x3c, 0x0b, 0x1b, 0x30, 0xbd, 0xf6, 0xdd,
    0xc4, 0xbd, 0x2e, 0x96, 0x1e, 0xbd, 0xd4, 0x8d, 0x3e, 0xbc,
